unsigned char audio_yesno_micro_q_tflite[] = {
  0x1c, 0x00, 0x00, 0x00, 0x54, 0x46, 0x4c, 0x33, 0x14, 0x00, 0x20, 0x00,
  0x1c, 0x00, 0x18, 0x00, 0x14, 0x00, 0x10, 0x00, 0x0c, 0x00, 0x00, 0x00,
  0x08, 0x00, 0x04, 0x00, 0x14, 0x00, 0x00, 0x00, 0x1c, 0x00, 0x00, 0x00,
  0x1c, 0x00, 0x00, 0x00, 0x4c, 0x00, 0x00, 0x00, 0x70, 0x03, 0x00, 0x00,
  0x80, 0x03, 0x00, 0x00, 0xa4, 0x15, 0x00, 0x00, 0x03, 0x00, 0x00, 0x00,
  0x00, 0x00, 0x00, 0x00, 0x01, 0x00, 0x00, 0x00, 0x0c, 0x00, 0x00, 0x00,
  0x08, 0x00, 0x0c, 0x00, 0x08, 0x00, 0x04, 0x00, 0x08, 0x00, 0x00, 0x00,
  0x1a, 0x00, 0x00, 0x00, 0x04, 0x00, 0x00, 0x00, 0x13, 0x00, 0x00, 0x00,
  0x6d, 0x69, 0x6e, 0x5f, 0x72, 0x75, 0x6e, 0x74, 0x69, 0x6d, 0x65, 0x5f,
  0x76, 0x65, 0x72, 0x73, 0x69, 0x6f, 0x6e, 0x00, 0x1b, 0x00, 0x00, 0x00,
  0x20, 0x03, 0x00, 0x00, 0x18, 0x03, 0x00, 0x00, 0x04, 0x03, 0x00, 0x00,
  0xf0, 0x02, 0x00, 0x00, 0xdc, 0x02, 0x00, 0x00, 0xc8, 0x02, 0x00, 0x00,
  0xb0, 0x02, 0x00, 0x00, 0x58, 0x02, 0x00, 0x00, 0x28, 0x02, 0x00, 0x00,
  0xf8, 0x00, 0x00, 0x00, 0xd8, 0x00, 0x00, 0x00, 0xc0, 0x00, 0x00, 0x00,
  0xa8, 0x00, 0x00, 0x00, 0x94, 0x00, 0x00, 0x00, 0x7c, 0x00, 0x00, 0x00,
  0x74, 0x00, 0x00, 0x00, 0x6c, 0x00, 0x00, 0x00, 0x64, 0x00, 0x00, 0x00,
  0x5c, 0x00, 0x00, 0x00, 0x54, 0x00, 0x00, 0x00, 0x4c, 0x00, 0x00, 0x00,
  0x44, 0x00, 0x00, 0x00, 0x3c, 0x00, 0x00, 0x00, 0x34, 0x00, 0x00, 0x00,
  0x2c, 0x00, 0x00, 0x00, 0x24, 0x00, 0x00, 0x00, 0x04, 0x00, 0x00, 0x00,
  0xce, 0xfa, 0xff, 0xff, 0x04, 0x00, 0x00, 0x00, 0x10, 0x00, 0x00, 0x00,
  0x31, 0x2e, 0x31, 0x34, 0x2e, 0x30, 0x00, 0x00, 0x00, 0x00, 0x00, 0x00,
  0x00, 0x00, 0x00, 0x00, 0xfc, 0xeb, 0xff, 0xff, 0x00, 0xec, 0xff, 0xff,
  0x04, 0xec, 0xff, 0xff, 0x08, 0xec, 0xff, 0xff, 0x0c, 0xec, 0xff, 0xff,
  0x10, 0xec, 0xff, 0xff, 0x14, 0xec, 0xff, 0xff, 0x18, 0xec, 0xff, 0xff,
  0x1c, 0xec, 0xff, 0xff, 0x20, 0xec, 0xff, 0xff, 0x24, 0xec, 0xff, 0xff,
  0x16, 0xfb, 0xff, 0xff, 0x04, 0x00, 0x00, 0x00, 0x08, 0x00, 0x00, 0x00,
  0x36, 0x00, 0x00, 0x00, 0xca, 0xff, 0xff, 0xff, 0x2a, 0xfb, 0xff, 0xff,
  0x04, 0x00, 0x00, 0x00, 0x04, 0x00, 0x00, 0x00, 0x81, 0xf8, 0x7d, 0x98,
  0x3a, 0xfb, 0xff, 0xff, 0x04, 0x00, 0x00, 0x00, 0x08, 0x00, 0x00, 0x00,
  0xf0, 0x00, 0x00, 0x00, 0x6e, 0x00, 0x00, 0x00, 0x4e, 0xfb, 0xff, 0xff,
  0x04, 0x00, 0x00, 0x00, 0x08, 0x00, 0x00, 0x00, 0x8e, 0x73, 0x3c, 0xad,
  0x7f, 0xeb, 0x70, 0x25, 0x62, 0xfb, 0xff, 0xff, 0x04, 0x00, 0x00, 0x00,
  0x10, 0x00, 0x00, 0x00, 0xfb, 0xff, 0xff, 0xff, 0x7e, 0x00, 0x00, 0x00,
  0xc1, 0x02, 0x00, 0x00, 0x14, 0x00, 0x00, 0x00, 0x7e, 0xfb, 0xff, 0xff,
  0x04, 0x00, 0x00, 0x00, 0x20, 0x01, 0x00, 0x00, 0xe4, 0x28, 0xfc, 0x42,
  0x19, 0x21, 0xd0, 0xcd, 0x01, 0xe4, 0x1d, 0xf7, 0xb2, 0xfe, 0x20, 0x1b,
  0xf8, 0x22, 0x1a, 0x07, 0xcd, 0x50, 0x23, 0x38, 0xd6, 0xdf, 0xeb, 0x1d,
  0xf1, 0x10, 0x10, 0xac, 0x31, 0x06, 0xf4, 0x30, 0xc3, 0x13, 0x10, 0xe4,
  0x7f, 0x1f, 0x36, 0x54, 0xc7, 0x11, 0x51, 0x72, 0x35, 0xc1, 0xc5, 0x0f,
  0x9c, 0x02, 0x9b, 0xc4, 0x42, 0x0c, 0xec, 0x1b, 0xee, 0x76, 0xf2, 0x16,
  0x72, 0x7a, 0x69, 0x7b, 0x05, 0x7e, 0x05, 0x6b, 0xe1, 0x98, 0xd7, 0xd6,
  0x4c, 0xa2, 0x3a, 0x51, 0xfc, 0x16, 0xf9, 0x21, 0x30, 0xf5, 0x25, 0xed,
  0xeb, 0x63, 0xdc, 0xf1, 0xdb, 0xea, 0xbd, 0x32, 0xc2, 0x8e, 0xfa, 0x9f,
  0x49, 0xa3, 0xfc, 0xcf, 0x17, 0x28, 0xdc, 0x01, 0x48, 0xf9, 0xff, 0xcd,
  0x81, 0x1a, 0x31, 0xf9, 0x1c, 0x12, 0xde, 0xa1, 0x8d, 0xc4, 0xa8, 0xb5,
  0x4c, 0x82, 0x07, 0x3a, 0x06, 0x17, 0xe0, 0xd1, 0x19, 0xd3, 0x27, 0x03,
  0xa6, 0x90, 0xe0, 0xcb, 0x24, 0xb0, 0xe9, 0x98, 0xf8, 0xed, 0x3e, 0x00,
  0x38, 0xf0, 0xef, 0x47, 0x2b, 0x2d, 0x10, 0x15, 0x6e, 0x1d, 0x03, 0x3d,
  0x26, 0x42, 0x52, 0x48, 0x18, 0x55, 0x28, 0x34, 0xf0, 0xa0, 0x3c, 0x02,
  0x14, 0xf8, 0x38, 0x0a, 0xf8, 0xe2, 0xd5, 0xfb, 0xfe, 0xd0, 0x42, 0x03,
  0xc8, 0xdd, 0x19, 0xfa, 0x41, 0xe4, 0x19, 0x30, 0xa7, 0xd2, 0x1a, 0xf4,
  0x7f, 0xf9, 0x05, 0x4b, 0x1b, 0xe5, 0xfe, 0x2a, 0x3d, 0xf9, 0x01, 0xfe,
  0xa4, 0xff, 0x02, 0xd4, 0x0e, 0xda, 0x0e, 0x0e, 0xf6, 0x3e, 0xe3, 0xe3,
  0xe1, 0x02, 0xee, 0xb3, 0x0a, 0x05, 0x15, 0x21, 0xda, 0x34, 0xf0, 0xf4,
  0x16, 0x35, 0xf5, 0x12, 0x03, 0x51, 0x20, 0xff, 0x37, 0xdd, 0x23, 0xf0,
  0xe7, 0x15, 0xf2, 0xe3, 0xe2, 0x0e, 0x20, 0x31, 0xaf, 0x45, 0x14, 0xdf,
  0x7f, 0x3d, 0x2e, 0x4b, 0xf5, 0x5b, 0x12, 0x0d, 0xfe, 0x16, 0xf4, 0x54,
  0xdb, 0xf1, 0xf4, 0xc1, 0x2f, 0x31, 0xdb, 0x44, 0xcb, 0x38, 0xd9, 0x16,
  0x56, 0x61, 0x4d, 0x4d, 0xdd, 0x40, 0x19, 0x17, 0xaa, 0xfc, 0xff, 0xff,
  0x04, 0x00, 0x00, 0x00, 0x20, 0x00, 0x00, 0x00, 0x07, 0x00, 0x00, 0x00,
  0x02, 0x00, 0x00, 0x00, 0x14, 0x00, 0x00, 0x00, 0x5e, 0x00, 0x00, 0x00,
  0x80, 0x00, 0x00, 0x00, 0x1c, 0x00, 0x00, 0x00, 0x93, 0x00, 0x00, 0x00,
  0x27, 0x00, 0x00, 0x00, 0xd6, 0xfc, 0xff, 0xff, 0x04, 0x00, 0x00, 0x00,
  0x48, 0x00, 0x00, 0x00, 0x1e, 0xff, 0x18, 0xbb, 0x10, 0x33, 0x24, 0xf3,
  0x7f, 0x13, 0xc1, 0x36, 0x2e, 0x0a, 0x7f, 0xb2, 0x45, 0x26, 0x14, 0x7d,
  0x19, 0x9d, 0x7f, 0x7f, 0x41, 0x1e, 0x36, 0xc0, 0xea, 0x4b, 0x39, 0xe6,
  0x72, 0x99, 0x5b, 0x7f, 0x14, 0x57, 0xf9, 0x50, 0x10, 0xed, 0x51, 0x1a,
  0x81, 0x15, 0x21, 0x1f, 0xdb, 0x41, 0x63, 0xb3, 0x35, 0x7f, 0x61, 0x05,
  0x5a, 0x66, 0x53, 0xeb, 0x23, 0x50, 0x7f, 0xe9, 0xdb, 0x2e, 0xf7, 0x2a,
  0x25, 0x36, 0x7f, 0x43, 0x2a, 0xfd, 0xff, 0xff, 0x04, 0x00, 0x00, 0x00,
  0x08, 0x00, 0x00, 0x00, 0x01, 0x00, 0x00, 0x00, 0x02, 0x00, 0x00, 0x00,
  0x3e, 0xfd, 0xff, 0xff, 0x04, 0x00, 0x00, 0x00, 0x04, 0x00, 0x00, 0x00,
  0x01, 0x00, 0x00, 0x00, 0x4e, 0xfd, 0xff, 0xff, 0x04, 0x00, 0x00, 0x00,
  0x04, 0x00, 0x00, 0x00, 0x08, 0x00, 0x00, 0x00, 0x5e, 0xfd, 0xff, 0xff,
  0x04, 0x00, 0x00, 0x00, 0x04, 0x00, 0x00, 0x00, 0x01, 0x00, 0x00, 0x00,
  0x6e, 0xfd, 0xff, 0xff, 0x04, 0x00, 0x00, 0x00, 0x04, 0x00, 0x00, 0x00,
  0x00, 0x00, 0x00, 0x00, 0x90, 0xee, 0xff, 0xff, 0x94, 0xee, 0xff, 0xff,
  0x0f, 0x00, 0x00, 0x00, 0x4d, 0x4c, 0x49, 0x52, 0x20, 0x43, 0x6f, 0x6e,
  0x76, 0x65, 0x72, 0x74, 0x65, 0x64, 0x2e, 0x00, 0x01, 0x00, 0x00, 0x00,
  0x14, 0x00, 0x00, 0x00, 0x00, 0x00, 0x0e, 0x00, 0x18, 0x00, 0x14, 0x00,
  0x10, 0x00, 0x0c, 0x00, 0x08, 0x00, 0x04, 0x00, 0x0e, 0x00, 0x00, 0x00,
  0x14, 0x00, 0x00, 0x00, 0x1c, 0x00, 0x00, 0x00, 0x0c, 0x03, 0x00, 0x00,
  0x10, 0x03, 0x00, 0x00, 0x14, 0x03, 0x00, 0x00, 0x04, 0x00, 0x00, 0x00,
  0x6d, 0x61, 0x69, 0x6e, 0x00, 0x00, 0x00, 0x00, 0x0b, 0x00, 0x00, 0x00,
  0xbc, 0x02, 0x00, 0x00, 0x5c, 0x02, 0x00, 0x00, 0x04, 0x02, 0x00, 0x00,
  0xdc, 0x01, 0x00, 0x00, 0x7c, 0x01, 0x00, 0x00, 0x34, 0x01, 0x00, 0x00,
  0xe0, 0x00, 0x00, 0x00, 0xac, 0x00, 0x00, 0x00, 0x70, 0x00, 0x00, 0x00,
  0x38, 0x00, 0x00, 0x00, 0x04, 0x00, 0x00, 0x00, 0xda, 0xfd, 0xff, 0xff,
  0x14, 0x00, 0x00, 0x00, 0x00, 0x00, 0x00, 0x09, 0x14, 0x00, 0x00, 0x00,
  0x18, 0x00, 0x00, 0x00, 0x08, 0x00, 0x00, 0x00, 0x1e, 0xfe, 0xff, 0xff,
  0x00, 0x00, 0x80, 0x3f, 0x01, 0x00, 0x00, 0x00, 0x18, 0x00, 0x00, 0x00,
  0x01, 0x00, 0x00, 0x00, 0x17, 0x00, 0x00, 0x00, 0x0a, 0xfe, 0xff, 0xff,
  0x14, 0x00, 0x00, 0x00, 0x00, 0x00, 0x00, 0x08, 0x10, 0x00, 0x00, 0x00,
  0x14, 0x00, 0x00, 0x00, 0x07, 0x00, 0x00, 0x00, 0x60, 0xef, 0xff, 0xff,
  0x01, 0x00, 0x00, 0x00, 0x17, 0x00, 0x00, 0x00, 0x03, 0x00, 0x00, 0x00,
  0x16, 0x00, 0x00, 0x00, 0x0c, 0x00, 0x00, 0x00, 0x0d, 0x00, 0x00, 0x00,
  0x3e, 0xfe, 0xff, 0xff, 0x14, 0x00, 0x00, 0x00, 0x00, 0x00, 0x00, 0x08,
  0x14, 0x00, 0x00, 0x00, 0x18, 0x00, 0x00, 0x00, 0x07, 0x00, 0x00, 0x00,
  0xd6, 0xfd, 0xff, 0xff, 0x00, 0x00, 0x00, 0x01, 0x01, 0x00, 0x00, 0x00,
  0x16, 0x00, 0x00, 0x00, 0x03, 0x00, 0x00, 0x00, 0x15, 0x00, 0x00, 0x00,
  0x0a, 0x00, 0x00, 0x00, 0x0b, 0x00, 0x00, 0x00, 0x76, 0xfe, 0xff, 0xff,
  0x14, 0x00, 0x00, 0x00, 0x00, 0x00, 0x00, 0x1b, 0x10, 0x00, 0x00, 0x00,
  0x14, 0x00, 0x00, 0x00, 0x06, 0x00, 0x00, 0x00, 0xcc, 0xef, 0xff, 0xff,
  0x01, 0x00, 0x00, 0x00, 0x15, 0x00, 0x00, 0x00, 0x02, 0x00, 0x00, 0x00,
  0x14, 0x00, 0x00, 0x00, 0x05, 0x00, 0x00, 0x00, 0xa6, 0xfe, 0xff, 0xff,
  0x24, 0x00, 0x00, 0x00, 0x00, 0x00, 0x00, 0x05, 0x34, 0x00, 0x00, 0x00,
  0x38, 0x00, 0x00, 0x00, 0x05, 0x00, 0x00, 0x00, 0x00, 0x00, 0x0e, 0x00,
  0x18, 0x00, 0x17, 0x00, 0x10, 0x00, 0x0c, 0x00, 0x08, 0x00, 0x04, 0x00,
  0x0e, 0x00, 0x00, 0x00, 0x02, 0x00, 0x00, 0x00, 0x02, 0x00, 0x00, 0x00,
  0x02, 0x00, 0x00, 0x00, 0x02, 0x00, 0x00, 0x00, 0x00, 0x00, 0x00, 0x01,
  0x01, 0x00, 0x00, 0x00, 0x14, 0x00, 0x00, 0x00, 0x01, 0x00, 0x00, 0x00,
  0x13, 0x00, 0x00, 0x00, 0xf6, 0xfe, 0xff, 0xff, 0x14, 0x00, 0x00, 0x00,
  0x00, 0x00, 0x00, 0x01, 0x20, 0x00, 0x00, 0x00, 0x24, 0x00, 0x00, 0x00,
  0x04, 0x00, 0x00, 0x00, 0xbc, 0xff, 0xff, 0xff, 0x00, 0x00, 0x00, 0x01,
  0x01, 0x00, 0x00, 0x00, 0x01, 0x00, 0x00, 0x00, 0x00, 0x00, 0x00, 0x01,
  0x01, 0x00, 0x00, 0x00, 0x13, 0x00, 0x00, 0x00, 0x03, 0x00, 0x00, 0x00,
  0x12, 0x00, 0x00, 0x00, 0x08, 0x00, 0x00, 0x00, 0x09, 0x00, 0x00, 0x00,
  0x3a, 0xff, 0xff, 0xff, 0x20, 0x00, 0x00, 0x00, 0x00, 0x00, 0x00, 0x01,
  0x2c, 0x00, 0x00, 0x00, 0x30, 0x00, 0x00, 0x00, 0x04, 0x00, 0x00, 0x00,
  0x0c, 0x00, 0x14, 0x00, 0x13, 0x00, 0x0c, 0x00, 0x08, 0x00, 0x07, 0x00,
  0x0c, 0x00, 0x00, 0x00, 0x00, 0x00, 0x00, 0x01, 0x01, 0x00, 0x00, 0x00,
  0x01, 0x00, 0x00, 0x00, 0x00, 0x00, 0x00, 0x01, 0x01, 0x00, 0x00, 0x00,
  0x12, 0x00, 0x00, 0x00, 0x03, 0x00, 0x00, 0x00, 0x11, 0x00, 0x00, 0x00,
  0x06, 0x00, 0x00, 0x00, 0x07, 0x00, 0x00, 0x00, 0x00, 0x00, 0x0a, 0x00,
  0x10, 0x00, 0x0c, 0x00, 0x08, 0x00, 0x04, 0x00, 0x0a, 0x00, 0x00, 0x00,
  0x0c, 0x00, 0x00, 0x00, 0x10, 0x00, 0x00, 0x00, 0x03, 0x00, 0x00, 0x00,
  0x01, 0x00, 0x00, 0x00, 0x11, 0x00, 0x00, 0x00, 0x02, 0x00, 0x00, 0x00,
  0x00, 0x00, 0x00, 0x00, 0x10, 0x00, 0x00, 0x00, 0xba, 0xff, 0xff, 0xff,
  0x1c, 0x00, 0x00, 0x00, 0x00, 0x00, 0x00, 0x3b, 0x1c, 0x00, 0x00, 0x00,
  0x20, 0x00, 0x00, 0x00, 0x02, 0x00, 0x00, 0x00, 0x00, 0x00, 0x06, 0x00,
  0x08, 0x00, 0x04, 0x00, 0x06, 0x00, 0x00, 0x00, 0x04, 0x00, 0x00, 0x00,
  0x01, 0x00, 0x00, 0x00, 0x10, 0x00, 0x00, 0x00, 0x04, 0x00, 0x00, 0x00,
  0x0f, 0x00, 0x00, 0x00, 0x03, 0x00, 0x00, 0x00, 0x03, 0x00, 0x00, 0x00,
  0x04, 0x00, 0x00, 0x00, 0x00, 0x00, 0x0e, 0x00, 0x1a, 0x00, 0x14, 0x00,
  0x10, 0x00, 0x0c, 0x00, 0x0b, 0x00, 0x04, 0x00, 0x0e, 0x00, 0x00, 0x00,
  0x24, 0x00, 0x00, 0x00, 0x00, 0x00, 0x00, 0x20, 0x24, 0x00, 0x00, 0x00,
  0x28, 0x00, 0x00, 0x00, 0x01, 0x00, 0x00, 0x00, 0x00, 0x00, 0x0e, 0x00,
  0x08, 0x00, 0x00, 0x00, 0x00, 0x00, 0x00, 0x00, 0x00, 0x00, 0x04, 0x00,
  0x0e, 0x00, 0x00, 0x00, 0x01, 0x00, 0x00, 0x00, 0x01, 0x00, 0x00, 0x00,
  0x0f, 0x00, 0x00, 0x00, 0x04, 0x00, 0x00, 0x00, 0x0e, 0x00, 0x00, 0x00,
  0x01, 0x00, 0x00, 0x00, 0x02, 0x00, 0x00, 0x00, 0x02, 0x00, 0x00, 0x00,
  0x00, 0x00, 0x0e, 0x00, 0x16, 0x00, 0x00, 0x00, 0x10, 0x00, 0x0c, 0x00,
  0x0b, 0x00, 0x04, 0x00, 0x0e, 0x00, 0x00, 0x00, 0x18, 0x00, 0x00, 0x00,
  0x00, 0x00, 0x00, 0x37, 0x18, 0x00, 0x00, 0x00, 0x1c, 0x00, 0x00, 0x00,
  0x00, 0x00, 0x06, 0x00, 0x08, 0x00, 0x07, 0x00, 0x06, 0x00, 0x00, 0x00,
  0x00, 0x00, 0x00, 0x02, 0x01, 0x00, 0x00, 0x00, 0x0e, 0x00, 0x00, 0x00,
  0x01, 0x00, 0x00, 0x00, 0x00, 0x00, 0x00, 0x00, 0x01, 0x00, 0x00, 0x00,
  0x18, 0x00, 0x00, 0x00, 0x01, 0x00, 0x00, 0x00, 0x00, 0x00, 0x00, 0x00,
  0x19, 0x00, 0x00, 0x00, 0x70, 0x0e, 0x00, 0x00, 0xf4, 0x0d, 0x00, 0x00,
  0x7c, 0x0d, 0x00, 0x00, 0x20, 0x0d, 0x00, 0x00, 0xc4, 0x0c, 0x00, 0x00,
  0x50, 0x0c, 0x00, 0x00, 0x84, 0x0b, 0x00, 0x00, 0x60, 0x0a, 0x00, 0x00,
  0xc4, 0x09, 0x00, 0x00, 0xd0, 0x08, 0x00, 0x00, 0x5c, 0x08, 0x00, 0x00,
  0xd8, 0x07, 0x00, 0x00, 0x64, 0x07, 0x00, 0x00, 0xe0, 0x06, 0x00, 0x00,
  0x88, 0x06, 0x00, 0x00, 0x2c, 0x06, 0x00, 0x00, 0xcc, 0x05, 0x00, 0x00,
  0x30, 0x05, 0x00, 0x00, 0x1c, 0x04, 0x00, 0x00, 0x08, 0x03, 0x00, 0x00,
  0x6c, 0x02, 0x00, 0x00, 0xd8, 0x01, 0x00, 0x00, 0x14, 0x01, 0x00, 0x00,
  0x70, 0x00, 0x00, 0x00, 0x04, 0x00, 0x00, 0x00, 0x08, 0xf2, 0xff, 0xff,
  0x18, 0x00, 0x00, 0x00, 0x20, 0x00, 0x00, 0x00, 0x40, 0x00, 0x00, 0x00,
  0x19, 0x00, 0x00, 0x00, 0x00, 0x00, 0x00, 0x09, 0x44, 0x00, 0x00, 0x00,
  0x02, 0x00, 0x00, 0x00, 0xff, 0xff, 0xff, 0xff, 0x02, 0x00, 0x00, 0x00,
  0xf4, 0xf1, 0xff, 0xff, 0x08, 0x00, 0x00, 0x00, 0x14, 0x00, 0x00, 0x00,
  0x01, 0x00, 0x00, 0x00, 0x80, 0xff, 0xff, 0xff, 0xff, 0xff, 0xff, 0xff,
  0x00, 0x00, 0x00, 0x00, 0x01, 0x00, 0x00, 0x00, 0x00, 0x00, 0x80, 0x3b,
  0x08, 0x00, 0x00, 0x00, 0x49, 0x64, 0x65, 0x6e, 0x74, 0x69, 0x74, 0x79,
  0x00, 0x00, 0x00, 0x00, 0x02, 0x00, 0x00, 0x00, 0x01, 0x00, 0x00, 0x00,
  0x02, 0x00, 0x00, 0x00, 0x70, 0xf2, 0xff, 0xff, 0x18, 0x00, 0x00, 0x00,
  0x20, 0x00, 0x00, 0x00, 0x3c, 0x00, 0x00, 0x00, 0x18, 0x00, 0x00, 0x00,
  0x00, 0x00, 0x00, 0x09, 0x7c, 0x00, 0x00, 0x00, 0x02, 0x00, 0x00, 0x00,
  0xff, 0xff, 0xff, 0xff, 0x02, 0x00, 0x00, 0x00, 0x5c, 0xf2, 0xff, 0xff,
  0x08, 0x00, 0x00, 0x00, 0x10, 0x00, 0x00, 0x00, 0x01, 0x00, 0x00, 0x00,
  0x59, 0x00, 0x00, 0x00, 0x00, 0x00, 0x00, 0x00, 0x01, 0x00, 0x00, 0x00,
  0x12, 0x76, 0x06, 0x3e, 0x44, 0x00, 0x00, 0x00, 0x67, 0x65, 0x73, 0x74,
  0x75, 0x72, 0x65, 0x5f, 0x66, 0x6c, 0x61, 0x74, 0x5f, 0x6d, 0x6f, 0x64,
  0x65, 0x6c, 0x2f, 0x64, 0x65, 0x6e, 0x73, 0x65, 0x5f, 0x33, 0x2f, 0x4d,
  0x61, 0x74, 0x4d, 0x75, 0x6c, 0x3b, 0x67, 0x65, 0x73, 0x74, 0x75, 0x72,
  0x65, 0x5f, 0x66, 0x6c, 0x61, 0x74, 0x5f, 0x6d, 0x6f, 0x64, 0x65, 0x6c,
  0x2f, 0x64, 0x65, 0x6e, 0x73, 0x65, 0x5f, 0x33, 0x2f, 0x42, 0x69, 0x61,
  0x73, 0x41, 0x64, 0x64, 0x00, 0x00, 0x00, 0x00, 0x02, 0x00, 0x00, 0x00,
  0x01, 0x00, 0x00, 0x00, 0x02, 0x00, 0x00, 0x00, 0x10, 0xf3, 0xff, 0xff,
  0x18, 0x00, 0x00, 0x00, 0x20, 0x00, 0x00, 0x00, 0x3c, 0x00, 0x00, 0x00,
  0x17, 0x00, 0x00, 0x00, 0x00, 0x00, 0x00, 0x09, 0x9c, 0x00, 0x00, 0x00,
  0x02, 0x00, 0x00, 0x00, 0xff, 0xff, 0xff, 0xff, 0x02, 0x00, 0x00, 0x00,
  0xfc, 0xf2, 0xff, 0xff, 0x08, 0x00, 0x00, 0x00, 0x10, 0x00, 0x00, 0x00,
  0x01, 0x00, 0x00, 0x00, 0x80, 0xff, 0xff, 0xff, 0xff, 0xff, 0xff, 0xff,
  0x01, 0x00, 0x00, 0x00, 0x68, 0x1c, 0xcf, 0x3d, 0x64, 0x00, 0x00, 0x00,
  0x67, 0x65, 0x73, 0x74, 0x75, 0x72, 0x65, 0x5f, 0x66, 0x6c, 0x61, 0x74,
  0x5f, 0x6d, 0x6f, 0x64, 0x65, 0x6c, 0x2f, 0x64, 0x65, 0x6e, 0x73, 0x65,
  0x5f, 0x32, 0x2f, 0x4d, 0x61, 0x74, 0x4d, 0x75, 0x6c, 0x3b, 0x67, 0x65,
  0x73, 0x74, 0x75, 0x72, 0x65, 0x5f, 0x66, 0x6c, 0x61, 0x74, 0x5f, 0x6d,
  0x6f, 0x64, 0x65, 0x6c, 0x2f, 0x64, 0x65, 0x6e, 0x73, 0x65, 0x5f, 0x32,
  0x2f, 0x42, 0x69, 0x61, 0x73, 0x41, 0x64, 0x64, 0x3b, 0x67, 0x65, 0x73,
  0x74, 0x75, 0x72, 0x65, 0x5f, 0x66, 0x6c, 0x61, 0x74, 0x5f, 0x6d, 0x6f,
  0x64, 0x65, 0x6c, 0x2f, 0x64, 0x65, 0x6e, 0x73, 0x65, 0x5f, 0x32, 0x2f,
  0x52, 0x65, 0x6c, 0x75, 0x00, 0x00, 0x00, 0x00, 0x02, 0x00, 0x00, 0x00,
  0x01, 0x00, 0x00, 0x00, 0x02, 0x00, 0x00, 0x00, 0xd0, 0xf3, 0xff, 0xff,
  0x18, 0x00, 0x00, 0x00, 0x20, 0x00, 0x00, 0x00, 0x40, 0x00, 0x00, 0x00,
  0x16, 0x00, 0x00, 0x00, 0x00, 0x00, 0x00, 0x09, 0x6c, 0x00, 0x00, 0x00,
  0x02, 0x00, 0x00, 0x00, 0xff, 0xff, 0xff, 0xff, 0x04, 0x00, 0x00, 0x00,
  0xbc, 0xf3, 0xff, 0xff, 0x08, 0x00, 0x00, 0x00, 0x14, 0x00, 0x00, 0x00,
  0x01, 0x00, 0x00, 0x00, 0x80, 0xff, 0xff, 0xff, 0xff, 0xff, 0xff, 0xff,
  0x00, 0x00, 0x00, 0x00, 0x01, 0x00, 0x00, 0x00, 0x18, 0x3f, 0x82, 0x3d,
  0x32, 0x00, 0x00, 0x00, 0x67, 0x65, 0x73, 0x74, 0x75, 0x72, 0x65, 0x5f,
  0x66, 0x6c, 0x61, 0x74, 0x5f, 0x6d, 0x6f, 0x64, 0x65, 0x6c, 0x2f, 0x67,
  0x6c, 0x6f, 0x62, 0x61, 0x6c, 0x5f, 0x61, 0x76, 0x65, 0x72, 0x61, 0x67,
  0x65, 0x5f, 0x70, 0x6f, 0x6f, 0x6c, 0x69, 0x6e, 0x67, 0x32, 0x64, 0x5f,
  0x31, 0x2f, 0x4d, 0x65, 0x61, 0x6e, 0x00, 0x00, 0x02, 0x00, 0x00, 0x00,
  0x01, 0x00, 0x00, 0x00, 0x04, 0x00, 0x00, 0x00, 0x60, 0xf4, 0xff, 0xff,
  0x18, 0x00, 0x00, 0x00, 0x28, 0x00, 0x00, 0x00, 0x48, 0x00, 0x00, 0x00,
  0x15, 0x00, 0x00, 0x00, 0x00, 0x00, 0x00, 0x09, 0x6c, 0x00, 0x00, 0x00,
  0x04, 0x00, 0x00, 0x00, 0xff, 0xff, 0xff, 0xff, 0x02, 0x00, 0x00, 0x00,
  0x02, 0x00, 0x00, 0x00, 0x04, 0x00, 0x00, 0x00, 0x54, 0xf4, 0xff, 0xff,
  0x08, 0x00, 0x00, 0x00, 0x14, 0x00, 0x00, 0x00, 0x01, 0x00, 0x00, 0x00,
  0x80, 0xff, 0xff, 0xff, 0xff, 0xff, 0xff, 0xff, 0x00, 0x00, 0x00, 0x00,
  0x01, 0x00, 0x00, 0x00, 0x9f, 0x5d, 0xf2, 0x3d, 0x2a, 0x00, 0x00, 0x00,
  0x67, 0x65, 0x73, 0x74, 0x75, 0x72, 0x65, 0x5f, 0x66, 0x6c, 0x61, 0x74,
  0x5f, 0x6d, 0x6f, 0x64, 0x65, 0x6c, 0x2f, 0x6d, 0x61, 0x78, 0x5f, 0x70,
  0x6f, 0x6f, 0x6c, 0x69, 0x6e, 0x67, 0x32, 0x64, 0x5f, 0x31, 0x2f, 0x4d,
  0x61, 0x78, 0x50, 0x6f, 0x6f, 0x6c, 0x00, 0x00, 0x04, 0x00, 0x00, 0x00,
  0x01, 0x00, 0x00, 0x00, 0x02, 0x00, 0x00, 0x00, 0x02, 0x00, 0x00, 0x00,
  0x04, 0x00, 0x00, 0x00, 0xf8, 0xf4, 0xff, 0xff, 0x18, 0x00, 0x00, 0x00,
  0x28, 0x00, 0x00, 0x00, 0x48, 0x00, 0x00, 0x00, 0x14, 0x00, 0x00, 0x00,
  0x00, 0x00, 0x00, 0x09, 0xe4, 0x00, 0x00, 0x00, 0x04, 0x00, 0x00, 0x00,
  0xff, 0xff, 0xff, 0xff, 0x04, 0x00, 0x00, 0x00, 0x04, 0x00, 0x00, 0x00,
  0x04, 0x00, 0x00, 0x00, 0xec, 0xf4, 0xff, 0xff, 0x08, 0x00, 0x00, 0x00,
  0x14, 0x00, 0x00, 0x00, 0x01, 0x00, 0x00, 0x00, 0x80, 0xff, 0xff, 0xff,
  0xff, 0xff, 0xff, 0xff, 0x00, 0x00, 0x00, 0x00, 0x01, 0x00, 0x00, 0x00,
  0x9f, 0x5d, 0xf2, 0x3d, 0xa3, 0x00, 0x00, 0x00, 0x67, 0x65, 0x73, 0x74,
  0x75, 0x72, 0x65, 0x5f, 0x66, 0x6c, 0x61, 0x74, 0x5f, 0x6d, 0x6f, 0x64,
  0x65, 0x6c, 0x2f, 0x63, 0x6f, 0x6e, 0x76, 0x32, 0x64, 0x5f, 0x33, 0x2f,
  0x52, 0x65, 0x6c, 0x75, 0x3b, 0x67, 0x65, 0x73, 0x74, 0x75, 0x72, 0x65,
  0x5f, 0x66, 0x6c, 0x61, 0x74, 0x5f, 0x6d, 0x6f, 0x64, 0x65, 0x6c, 0x2f,
  0x63, 0x6f, 0x6e, 0x76, 0x32, 0x64, 0x5f, 0x33, 0x2f, 0x42, 0x69, 0x61,
  0x73, 0x41, 0x64, 0x64, 0x3b, 0x67, 0x65, 0x73, 0x74, 0x75, 0x72, 0x65,
  0x5f, 0x66, 0x6c, 0x61, 0x74, 0x5f, 0x6d, 0x6f, 0x64, 0x65, 0x6c, 0x2f,
  0x63, 0x6f, 0x6e, 0x76, 0x32, 0x64, 0x5f, 0x33, 0x2f, 0x43, 0x6f, 0x6e,
  0x76, 0x32, 0x44, 0x3b, 0x67, 0x65, 0x73, 0x74, 0x75, 0x72, 0x65, 0x5f,
  0x66, 0x6c, 0x61, 0x74, 0x5f, 0x6d, 0x6f, 0x64, 0x65, 0x6c, 0x2f, 0x63,
  0x6f, 0x6e, 0x76, 0x32, 0x64, 0x5f, 0x33, 0x2f, 0x42, 0x69, 0x61, 0x73,
  0x41, 0x64, 0x64, 0x2f, 0x52, 0x65, 0x61, 0x64, 0x56, 0x61, 0x72, 0x69,
  0x61, 0x62, 0x6c, 0x65, 0x4f, 0x70, 0x2f, 0x72, 0x65, 0x73, 0x6f, 0x75,
  0x72, 0x63, 0x65, 0x00, 0x04, 0x00, 0x00, 0x00, 0x01, 0x00, 0x00, 0x00,
  0x04, 0x00, 0x00, 0x00, 0x04, 0x00, 0x00, 0x00, 0x04, 0x00, 0x00, 0x00,
  0x08, 0xf6, 0xff, 0xff, 0x18, 0x00, 0x00, 0x00, 0x28, 0x00, 0x00, 0x00,
  0x48, 0x00, 0x00, 0x00, 0x13, 0x00, 0x00, 0x00, 0x00, 0x00, 0x00, 0x09,
  0xe4, 0x00, 0x00, 0x00, 0x04, 0x00, 0x00, 0x00, 0xff, 0xff, 0xff, 0xff,
  0x06, 0x00, 0x00, 0x00, 0x06, 0x00, 0x00, 0x00, 0x08, 0x00, 0x00, 0x00,
  0xfc, 0xf5, 0xff, 0xff, 0x08, 0x00, 0x00, 0x00, 0x14, 0x00, 0x00, 0x00,
  0x01, 0x00, 0x00, 0x00, 0x80, 0xff, 0xff, 0xff, 0xff, 0xff, 0xff, 0xff,
  0x00, 0x00, 0x00, 0x00, 0x01, 0x00, 0x00, 0x00, 0xd5, 0xa2, 0xbc, 0x3d,
  0xa3, 0x00, 0x00, 0x00, 0x67, 0x65, 0x73, 0x74, 0x75, 0x72, 0x65, 0x5f,
  0x66, 0x6c, 0x61, 0x74, 0x5f, 0x6d, 0x6f, 0x64, 0x65, 0x6c, 0x2f, 0x63,
  0x6f, 0x6e, 0x76, 0x32, 0x64, 0x5f, 0x32, 0x2f, 0x52, 0x65, 0x6c, 0x75,
  0x3b, 0x67, 0x65, 0x73, 0x74, 0x75, 0x72, 0x65, 0x5f, 0x66, 0x6c, 0x61,
  0x74, 0x5f, 0x6d, 0x6f, 0x64, 0x65, 0x6c, 0x2f, 0x63, 0x6f, 0x6e, 0x76,
  0x32, 0x64, 0x5f, 0x32, 0x2f, 0x42, 0x69, 0x61, 0x73, 0x41, 0x64, 0x64,
  0x3b, 0x67, 0x65, 0x73, 0x74, 0x75, 0x72, 0x65, 0x5f, 0x66, 0x6c, 0x61,
  0x74, 0x5f, 0x6d, 0x6f, 0x64, 0x65, 0x6c, 0x2f, 0x63, 0x6f, 0x6e, 0x76,
  0x32, 0x64, 0x5f, 0x32, 0x2f, 0x43, 0x6f, 0x6e, 0x76, 0x32, 0x44, 0x3b,
  0x67, 0x65, 0x73, 0x74, 0x75, 0x72, 0x65, 0x5f, 0x66, 0x6c, 0x61, 0x74,
  0x5f, 0x6d, 0x6f, 0x64, 0x65, 0x6c, 0x2f, 0x63, 0x6f, 0x6e, 0x76, 0x32,
  0x64, 0x5f, 0x32, 0x2f, 0x42, 0x69, 0x61, 0x73, 0x41, 0x64, 0x64, 0x2f,
  0x52, 0x65, 0x61, 0x64, 0x56, 0x61, 0x72, 0x69, 0x61, 0x62, 0x6c, 0x65,
  0x4f, 0x70, 0x2f, 0x72, 0x65, 0x73, 0x6f, 0x75, 0x72, 0x63, 0x65, 0x00,
  0x04, 0x00, 0x00, 0x00, 0x01, 0x00, 0x00, 0x00, 0x06, 0x00, 0x00, 0x00,
  0x06, 0x00, 0x00, 0x00, 0x08, 0x00, 0x00, 0x00, 0x18, 0xf7, 0xff, 0xff,
  0x18, 0x00, 0x00, 0x00, 0x28, 0x00, 0x00, 0x00, 0x48, 0x00, 0x00, 0x00,
  0x12, 0x00, 0x00, 0x00, 0x00, 0x00, 0x00, 0x09, 0x6c, 0x00, 0x00, 0x00,
  0x04, 0x00, 0x00, 0x00, 0xff, 0xff, 0xff, 0xff, 0x08, 0x00, 0x00, 0x00,
  0x08, 0x00, 0x00, 0x00, 0x01, 0x00, 0x00, 0x00, 0x0c, 0xf7, 0xff, 0xff,
  0x08, 0x00, 0x00, 0x00, 0x14, 0x00, 0x00, 0x00, 0x01, 0x00, 0x00, 0x00,
  0x80, 0xff, 0xff, 0xff, 0xff, 0xff, 0xff, 0xff, 0x00, 0x00, 0x00, 0x00,
  0x01, 0x00, 0x00, 0x00, 0x22, 0x73, 0x1d, 0x3e, 0x2b, 0x00, 0x00, 0x00,
  0x67, 0x65, 0x73, 0x74, 0x75, 0x72, 0x65, 0x5f, 0x66, 0x6c, 0x61, 0x74,
  0x5f, 0x6d, 0x6f, 0x64, 0x65, 0x6c, 0x2f, 0x72, 0x65, 0x73, 0x68, 0x61,
  0x70, 0x65, 0x5f, 0x74, 0x6f, 0x5f, 0x38, 0x78, 0x38, 0x78, 0x31, 0x2f,
  0x52, 0x65, 0x73, 0x68, 0x61, 0x70, 0x65, 0x00, 0x04, 0x00, 0x00, 0x00,
  0x01, 0x00, 0x00, 0x00, 0x08, 0x00, 0x00, 0x00, 0x08, 0x00, 0x00, 0x00,
  0x01, 0x00, 0x00, 0x00, 0x22, 0xf8, 0xff, 0xff, 0x14, 0x00, 0x00, 0x00,
  0x14, 0x00, 0x00, 0x00, 0x11, 0x00, 0x00, 0x00, 0x00, 0x00, 0x00, 0x02,
  0x40, 0x00, 0x00, 0x00, 0x14, 0xf8, 0xff, 0xff, 0x31, 0x00, 0x00, 0x00,
  0x67, 0x65, 0x73, 0x74, 0x75, 0x72, 0x65, 0x5f, 0x66, 0x6c, 0x61, 0x74,
  0x5f, 0x6d, 0x6f, 0x64, 0x65, 0x6c, 0x2f, 0x72, 0x65, 0x73, 0x68, 0x61,
  0x70, 0x65, 0x5f, 0x74, 0x6f, 0x5f, 0x38, 0x78, 0x38, 0x78, 0x31, 0x2f,
  0x52, 0x65, 0x73, 0x68, 0x61, 0x70, 0x65, 0x2f, 0x73, 0x68, 0x61, 0x70,
  0x65, 0x00, 0x00, 0x00, 0x01, 0x00, 0x00, 0x00, 0x04, 0x00, 0x00, 0x00,
  0x7e, 0xf8, 0xff, 0xff, 0x14, 0x00, 0x00, 0x00, 0x14, 0x00, 0x00, 0x00,
  0x10, 0x00, 0x00, 0x00, 0x00, 0x00, 0x00, 0x02, 0x40, 0x00, 0x00, 0x00,
  0x70, 0xf8, 0xff, 0xff, 0x31, 0x00, 0x00, 0x00, 0x67, 0x65, 0x73, 0x74,
  0x75, 0x72, 0x65, 0x5f, 0x66, 0x6c, 0x61, 0x74, 0x5f, 0x6d, 0x6f, 0x64,
  0x65, 0x6c, 0x2f, 0x72, 0x65, 0x73, 0x68, 0x61, 0x70, 0x65, 0x5f, 0x74,
  0x6f, 0x5f, 0x38, 0x78, 0x38, 0x78, 0x31, 0x2f, 0x73, 0x74, 0x72, 0x69,
  0x64, 0x65, 0x64, 0x5f, 0x73, 0x6c, 0x69, 0x63, 0x65, 0x00, 0x00, 0x00,
  0x00, 0x00, 0x00, 0x00, 0xd6, 0xf8, 0xff, 0xff, 0x14, 0x00, 0x00, 0x00,
  0x14, 0x00, 0x00, 0x00, 0x0f, 0x00, 0x00, 0x00, 0x00, 0x00, 0x00, 0x02,
  0x38, 0x00, 0x00, 0x00, 0xc8, 0xf8, 0xff, 0xff, 0x29, 0x00, 0x00, 0x00,
  0x67, 0x65, 0x73, 0x74, 0x75, 0x72, 0x65, 0x5f, 0x66, 0x6c, 0x61, 0x74,
  0x5f, 0x6d, 0x6f, 0x64, 0x65, 0x6c, 0x2f, 0x72, 0x65, 0x73, 0x68, 0x61,
  0x70, 0x65, 0x5f, 0x74, 0x6f, 0x5f, 0x38, 0x78, 0x38, 0x78, 0x31, 0x2f,
  0x53, 0x68, 0x61, 0x70, 0x65, 0x00, 0x00, 0x00, 0x01, 0x00, 0x00, 0x00,
  0x02, 0x00, 0x00, 0x00, 0x2a, 0xf9, 0xff, 0xff, 0x14, 0x00, 0x00, 0x00,
  0x30, 0x00, 0x00, 0x00, 0x0e, 0x00, 0x00, 0x00, 0x00, 0x00, 0x00, 0x02,
  0x64, 0x00, 0x00, 0x00, 0x94, 0xf8, 0xff, 0xff, 0x08, 0x00, 0x00, 0x00,
  0x10, 0x00, 0x00, 0x00, 0x01, 0x00, 0x00, 0x00, 0x00, 0x00, 0x00, 0x00,
  0x00, 0x00, 0x00, 0x00, 0x01, 0x00, 0x00, 0x00, 0x19, 0x54, 0x8c, 0x3a,
  0x3a, 0x00, 0x00, 0x00, 0x67, 0x65, 0x73, 0x74, 0x75, 0x72, 0x65, 0x5f,
  0x66, 0x6c, 0x61, 0x74, 0x5f, 0x6d, 0x6f, 0x64, 0x65, 0x6c, 0x2f, 0x64,
  0x65, 0x6e, 0x73, 0x65, 0x5f, 0x33, 0x2f, 0x42, 0x69, 0x61, 0x73, 0x41,
  0x64, 0x64, 0x2f, 0x52, 0x65, 0x61, 0x64, 0x56, 0x61, 0x72, 0x69, 0x61,
  0x62, 0x6c, 0x65, 0x4f, 0x70, 0x2f, 0x72, 0x65, 0x73, 0x6f, 0x75, 0x72,
  0x63, 0x65, 0x00, 0x00, 0x01, 0x00, 0x00, 0x00, 0x02, 0x00, 0x00, 0x00,
  0xaa, 0xf9, 0xff, 0xff, 0x14, 0x00, 0x00, 0x00, 0x34, 0x00, 0x00, 0x00,
  0x0d, 0x00, 0x00, 0x00, 0x00, 0x00, 0x00, 0x09, 0x50, 0x00, 0x00, 0x00,
  0x14, 0xf9, 0xff, 0xff, 0x08, 0x00, 0x00, 0x00, 0x14, 0x00, 0x00, 0x00,
  0x01, 0x00, 0x00, 0x00, 0x00, 0x00, 0x00, 0x00, 0x00, 0x00, 0x00, 0x00,
  0x00, 0x00, 0x00, 0x00, 0x01, 0x00, 0x00, 0x00, 0x11, 0x74, 0x2d, 0x3c,
  0x21, 0x00, 0x00, 0x00, 0x67, 0x65, 0x73, 0x74, 0x75, 0x72, 0x65, 0x5f,
  0x66, 0x6c, 0x61, 0x74, 0x5f, 0x6d, 0x6f, 0x64, 0x65, 0x6c, 0x2f, 0x64,
  0x65, 0x6e, 0x73, 0x65, 0x5f, 0x33, 0x2f, 0x4d, 0x61, 0x74, 0x4d, 0x75,
  0x6c, 0x00, 0x00, 0x00, 0x02, 0x00, 0x00, 0x00, 0x02, 0x00, 0x00, 0x00,
  0x02, 0x00, 0x00, 0x00, 0x1a, 0xfa, 0xff, 0xff, 0x14, 0x00, 0x00, 0x00,
  0x30, 0x00, 0x00, 0x00, 0x0c, 0x00, 0x00, 0x00, 0x00, 0x00, 0x00, 0x02,
  0x64, 0x00, 0x00, 0x00, 0x84, 0xf9, 0xff, 0xff, 0x08, 0x00, 0x00, 0x00,
  0x10, 0x00, 0x00, 0x00, 0x01, 0x00, 0x00, 0x00, 0x00, 0x00, 0x00, 0x00,
  0x00, 0x00, 0x00, 0x00, 0x01, 0x00, 0x00, 0x00, 0x9b, 0xa0, 0x12, 0x3a,
  0x3a, 0x00, 0x00, 0x00, 0x67, 0x65, 0x73, 0x74, 0x75, 0x72, 0x65, 0x5f,
  0x66, 0x6c, 0x61, 0x74, 0x5f, 0x6d, 0x6f, 0x64, 0x65, 0x6c, 0x2f, 0x64,
  0x65, 0x6e, 0x73, 0x65, 0x5f, 0x32, 0x2f, 0x42, 0x69, 0x61, 0x73, 0x41,
  0x64, 0x64, 0x2f, 0x52, 0x65, 0x61, 0x64, 0x56, 0x61, 0x72, 0x69, 0x61,
  0x62, 0x6c, 0x65, 0x4f, 0x70, 0x2f, 0x72, 0x65, 0x73, 0x6f, 0x75, 0x72,
  0x63, 0x65, 0x00, 0x00, 0x01, 0x00, 0x00, 0x00, 0x02, 0x00, 0x00, 0x00,
  0x9a, 0xfa, 0xff, 0xff, 0x14, 0x00, 0x00, 0x00, 0x34, 0x00, 0x00, 0x00,
  0x0b, 0x00, 0x00, 0x00, 0x00, 0x00, 0x00, 0x09, 0x50, 0x00, 0x00, 0x00,
  0x04, 0xfa, 0xff, 0xff, 0x08, 0x00, 0x00, 0x00, 0x14, 0x00, 0x00, 0x00,
  0x01, 0x00, 0x00, 0x00, 0x00, 0x00, 0x00, 0x00, 0x00, 0x00, 0x00, 0x00,
  0x00, 0x00, 0x00, 0x00, 0x01, 0x00, 0x00, 0x00, 0x2f, 0x19, 0x10, 0x3c,
  0x21, 0x00, 0x00, 0x00, 0x67, 0x65, 0x73, 0x74, 0x75, 0x72, 0x65, 0x5f,
  0x66, 0x6c, 0x61, 0x74, 0x5f, 0x6d, 0x6f, 0x64, 0x65, 0x6c, 0x2f, 0x64,
  0x65, 0x6e, 0x73, 0x65, 0x5f, 0x32, 0x2f, 0x4d, 0x61, 0x74, 0x4d, 0x75,
  0x6c, 0x00, 0x00, 0x00, 0x02, 0x00, 0x00, 0x00, 0x02, 0x00, 0x00, 0x00,
  0x04, 0x00, 0x00, 0x00, 0x0a, 0xfb, 0xff, 0xff, 0x14, 0x00, 0x00, 0x00,
  0x58, 0x00, 0x00, 0x00, 0x0a, 0x00, 0x00, 0x00, 0x00, 0x00, 0x00, 0x02,
  0xd4, 0x00, 0x00, 0x00, 0x74, 0xfa, 0xff, 0xff, 0x08, 0x00, 0x00, 0x00,
  0x2c, 0x00, 0x00, 0x00, 0x04, 0x00, 0x00, 0x00, 0x00, 0x00, 0x00, 0x00,
  0x00, 0x00, 0x00, 0x00, 0x00, 0x00, 0x00, 0x00, 0x00, 0x00, 0x00, 0x00,
  0x00, 0x00, 0x00, 0x00, 0x00, 0x00, 0x00, 0x00, 0x00, 0x00, 0x00, 0x00,
  0x00, 0x00, 0x00, 0x00, 0x00, 0x00, 0x00, 0x00, 0x04, 0x00, 0x00, 0x00,
  0x28, 0xe6, 0xce, 0x39, 0x06, 0x8a, 0xb9, 0x39, 0xba, 0x32, 0xd2, 0x39,
  0xe6, 0x9f, 0xff, 0x39, 0x82, 0x00, 0x00, 0x00, 0x67, 0x65, 0x73, 0x74,
  0x75, 0x72, 0x65, 0x5f, 0x66, 0x6c, 0x61, 0x74, 0x5f, 0x6d, 0x6f, 0x64,
  0x65, 0x6c, 0x2f, 0x63, 0x6f, 0x6e, 0x76, 0x32, 0x64, 0x5f, 0x33, 0x2f,
  0x42, 0x69, 0x61, 0x73, 0x41, 0x64, 0x64, 0x3b, 0x67, 0x65, 0x73, 0x74,
  0x75, 0x72, 0x65, 0x5f, 0x66, 0x6c, 0x61, 0x74, 0x5f, 0x6d, 0x6f, 0x64,
  0x65, 0x6c, 0x2f, 0x63, 0x6f, 0x6e, 0x76, 0x32, 0x64, 0x5f, 0x33, 0x2f,
  0x43, 0x6f, 0x6e, 0x76, 0x32, 0x44, 0x3b, 0x67, 0x65, 0x73, 0x74, 0x75,
  0x72, 0x65, 0x5f, 0x66, 0x6c, 0x61, 0x74, 0x5f, 0x6d, 0x6f, 0x64, 0x65,
  0x6c, 0x2f, 0x63, 0x6f, 0x6e, 0x76, 0x32, 0x64, 0x5f, 0x33, 0x2f, 0x42,
  0x69, 0x61, 0x73, 0x41, 0x64, 0x64, 0x2f, 0x52, 0x65, 0x61, 0x64, 0x56,
  0x61, 0x72, 0x69, 0x61, 0x62, 0x6c, 0x65, 0x4f, 0x70, 0x2f, 0x72, 0x65,
  0x73, 0x6f, 0x75, 0x72, 0x63, 0x65, 0x00, 0x00, 0x01, 0x00, 0x00, 0x00,
  0x04, 0x00, 0x00, 0x00, 0xfa, 0xfb, 0xff, 0xff, 0x14, 0x00, 0x00, 0x00,
  0x54, 0x00, 0x00, 0x00, 0x09, 0x00, 0x00, 0x00, 0x00, 0x00, 0x00, 0x09,
  0x70, 0x00, 0x00, 0x00, 0x64, 0xfb, 0xff, 0xff, 0x08, 0x00, 0x00, 0x00,
  0x28, 0x00, 0x00, 0x00, 0x04, 0x00, 0x00, 0x00, 0x00, 0x00, 0x00, 0x00,
  0x00, 0x00, 0x00, 0x00, 0x00, 0x00, 0x00, 0x00, 0x00, 0x00, 0x00, 0x00,
  0x00, 0x00, 0x00, 0x00, 0x00, 0x00, 0x00, 0x00, 0x00, 0x00, 0x00, 0x00,
  0x00, 0x00, 0x00, 0x00, 0x04, 0x00, 0x00, 0x00, 0x77, 0x64, 0x8c, 0x3b,
  0x12, 0xcc, 0x7b, 0x3b, 0x8e, 0xa1, 0x8e, 0x3b, 0x97, 0x74, 0xad, 0x3b,
  0x22, 0x00, 0x00, 0x00, 0x67, 0x65, 0x73, 0x74, 0x75, 0x72, 0x65, 0x5f,
  0x66, 0x6c, 0x61, 0x74, 0x5f, 0x6d, 0x6f, 0x64, 0x65, 0x6c, 0x2f, 0x63,
  0x6f, 0x6e, 0x76, 0x32, 0x64, 0x5f, 0x33, 0x2f, 0x43, 0x6f, 0x6e, 0x76,
  0x32, 0x44, 0x00, 0x00, 0x04, 0x00, 0x00, 0x00, 0x04, 0x00, 0x00, 0x00,
  0x03, 0x00, 0x00, 0x00, 0x03, 0x00, 0x00, 0x00, 0x08, 0x00, 0x00, 0x00,
  0x92, 0xfc, 0xff, 0xff, 0x14, 0x00, 0x00, 0x00, 0x88, 0x00, 0x00, 0x00,
  0x08, 0x00, 0x00, 0x00, 0x00, 0x00, 0x00, 0x02, 0x04, 0x01, 0x00, 0x00,
  0xfc, 0xfb, 0xff, 0xff, 0x08, 0x00, 0x00, 0x00, 0x4c, 0x00, 0x00, 0x00,
  0x08, 0x00, 0x00, 0x00, 0x00, 0x00, 0x00, 0x00, 0x00, 0x00, 0x00, 0x00,
  0x00, 0x00, 0x00, 0x00, 0x00, 0x00, 0x00, 0x00, 0x00, 0x00, 0x00, 0x00,
  0x00, 0x00, 0x00, 0x00, 0x00, 0x00, 0x00, 0x00, 0x00, 0x00, 0x00, 0x00,
  0x00, 0x00, 0x00, 0x00, 0x00, 0x00, 0x00, 0x00, 0x00, 0x00, 0x00, 0x00,
  0x00, 0x00, 0x00, 0x00, 0x00, 0x00, 0x00, 0x00, 0x00, 0x00, 0x00, 0x00,
  0x00, 0x00, 0x00, 0x00, 0x00, 0x00, 0x00, 0x00, 0x00, 0x00, 0x00, 0x00,
  0x08, 0x00, 0x00, 0x00, 0xad, 0x9b, 0x59, 0x3a, 0x9a, 0x98, 0x48, 0x3a,
  0x8a, 0x21, 0xe8, 0x39, 0xf1, 0x5d, 0xfc, 0x39, 0xf6, 0x20, 0x33, 0x3a,
  0xa1, 0x2c, 0x26, 0x3a, 0x45, 0x0e, 0xf0, 0x39, 0xc9, 0x43, 0x3d, 0x3a,
  0x82, 0x00, 0x00, 0x00, 0x67, 0x65, 0x73, 0x74, 0x75, 0x72, 0x65, 0x5f,
  0x66, 0x6c, 0x61, 0x74, 0x5f, 0x6d, 0x6f, 0x64, 0x65, 0x6c, 0x2f, 0x63,
  0x6f, 0x6e, 0x76, 0x32, 0x64, 0x5f, 0x32, 0x2f, 0x42, 0x69, 0x61, 0x73,
  0x41, 0x64, 0x64, 0x3b, 0x67, 0x65, 0x73, 0x74, 0x75, 0x72, 0x65, 0x5f,
  0x66, 0x6c, 0x61, 0x74, 0x5f, 0x6d, 0x6f, 0x64, 0x65, 0x6c, 0x2f, 0x63,
  0x6f, 0x6e, 0x76, 0x32, 0x64, 0x5f, 0x32, 0x2f, 0x43, 0x6f, 0x6e, 0x76,
  0x32, 0x44, 0x3b, 0x67, 0x65, 0x73, 0x74, 0x75, 0x72, 0x65, 0x5f, 0x66,
  0x6c, 0x61, 0x74, 0x5f, 0x6d, 0x6f, 0x64, 0x65, 0x6c, 0x2f, 0x63, 0x6f,
  0x6e, 0x76, 0x32, 0x64, 0x5f, 0x32, 0x2f, 0x42, 0x69, 0x61, 0x73, 0x41,
  0x64, 0x64, 0x2f, 0x52, 0x65, 0x61, 0x64, 0x56, 0x61, 0x72, 0x69, 0x61,
  0x62, 0x6c, 0x65, 0x4f, 0x70, 0x2f, 0x72, 0x65, 0x73, 0x6f, 0x75, 0x72,
  0x63, 0x65, 0x00, 0x00, 0x01, 0x00, 0x00, 0x00, 0x08, 0x00, 0x00, 0x00,
  0xb2, 0xfd, 0xff, 0xff, 0x14, 0x00, 0x00, 0x00, 0x84, 0x00, 0x00, 0x00,
  0x07, 0x00, 0x00, 0x00, 0x00, 0x00, 0x00, 0x09, 0xa0, 0x00, 0x00, 0x00,
  0x1c, 0xfd, 0xff, 0xff, 0x08, 0x00, 0x00, 0x00, 0x48, 0x00, 0x00, 0x00,
  0x08, 0x00, 0x00, 0x00, 0x00, 0x00, 0x00, 0x00, 0x00, 0x00, 0x00, 0x00,
  0x00, 0x00, 0x00, 0x00, 0x00, 0x00, 0x00, 0x00, 0x00, 0x00, 0x00, 0x00,
  0x00, 0x00, 0x00, 0x00, 0x00, 0x00, 0x00, 0x00, 0x00, 0x00, 0x00, 0x00,
  0x00, 0x00, 0x00, 0x00, 0x00, 0x00, 0x00, 0x00, 0x00, 0x00, 0x00, 0x00,
  0x00, 0x00, 0x00, 0x00, 0x00, 0x00, 0x00, 0x00, 0x00, 0x00, 0x00, 0x00,
  0x00, 0x00, 0x00, 0x00, 0x00, 0x00, 0x00, 0x00, 0x08, 0x00, 0x00, 0x00,
  0xfe, 0xe7, 0xb0, 0x3b, 0x80, 0x13, 0xa3, 0x3b, 0x75, 0xb6, 0x3c, 0x3b,
  0xe8, 0x29, 0x4d, 0x3b, 0xc7, 0x9f, 0x91, 0x3b, 0xbd, 0x17, 0x87, 0x3b,
  0xbb, 0x27, 0x43, 0x3b, 0x42, 0xdd, 0x99, 0x3b, 0x22, 0x00, 0x00, 0x00,
  0x67, 0x65, 0x73, 0x74, 0x75, 0x72, 0x65, 0x5f, 0x66, 0x6c, 0x61, 0x74,
  0x5f, 0x6d, 0x6f, 0x64, 0x65, 0x6c, 0x2f, 0x63, 0x6f, 0x6e, 0x76, 0x32,
  0x64, 0x5f, 0x32, 0x2f, 0x43, 0x6f, 0x6e, 0x76, 0x32, 0x44, 0x00, 0x00,
  0x04, 0x00, 0x00, 0x00, 0x08, 0x00, 0x00, 0x00, 0x03, 0x00, 0x00, 0x00,
  0x03, 0x00, 0x00, 0x00, 0x01, 0x00, 0x00, 0x00, 0x7a, 0xfe, 0xff, 0xff,
  0x14, 0x00, 0x00, 0x00, 0x14, 0x00, 0x00, 0x00, 0x06, 0x00, 0x00, 0x00,
  0x00, 0x00, 0x00, 0x02, 0x54, 0x00, 0x00, 0x00, 0x6c, 0xfe, 0xff, 0xff,
  0x44, 0x00, 0x00, 0x00, 0x67, 0x65, 0x73, 0x74, 0x75, 0x72, 0x65, 0x5f,
  0x66, 0x6c, 0x61, 0x74, 0x5f, 0x6d, 0x6f, 0x64, 0x65, 0x6c, 0x2f, 0x67,
  0x6c, 0x6f, 0x62, 0x61, 0x6c, 0x5f, 0x61, 0x76, 0x65, 0x72, 0x61, 0x67,
  0x65, 0x5f, 0x70, 0x6f, 0x6f, 0x6c, 0x69, 0x6e, 0x67, 0x32, 0x64, 0x5f,
  0x31, 0x2f, 0x4d, 0x65, 0x61, 0x6e, 0x2f, 0x72, 0x65, 0x64, 0x75, 0x63,
  0x74, 0x69, 0x6f, 0x6e, 0x5f, 0x69, 0x6e, 0x64, 0x69, 0x63, 0x65, 0x73,
  0x00, 0x00, 0x00, 0x00, 0x01, 0x00, 0x00, 0x00, 0x02, 0x00, 0x00, 0x00,
  0xea, 0xfe, 0xff, 0xff, 0x14, 0x00, 0x00, 0x00, 0x14, 0x00, 0x00, 0x00,
  0x05, 0x00, 0x00, 0x00, 0x00, 0x00, 0x00, 0x02, 0x40, 0x00, 0x00, 0x00,
  0xdc, 0xfe, 0xff, 0xff, 0x33, 0x00, 0x00, 0x00, 0x67, 0x65, 0x73, 0x74,
  0x75, 0x72, 0x65, 0x5f, 0x66, 0x6c, 0x61, 0x74, 0x5f, 0x6d, 0x6f, 0x64,
  0x65, 0x6c, 0x2f, 0x72, 0x65, 0x73, 0x68, 0x61, 0x70, 0x65, 0x5f, 0x74,
  0x6f, 0x5f, 0x38, 0x78, 0x38, 0x78, 0x31, 0x2f, 0x52, 0x65, 0x73, 0x68,
  0x61, 0x70, 0x65, 0x2f, 0x73, 0x68, 0x61, 0x70, 0x65, 0x2f, 0x33, 0x00,
  0x00, 0x00, 0x00, 0x00, 0x42, 0xff, 0xff, 0xff, 0x14, 0x00, 0x00, 0x00,
  0x14, 0x00, 0x00, 0x00, 0x04, 0x00, 0x00, 0x00, 0x00, 0x00, 0x00, 0x02,
  0x40, 0x00, 0x00, 0x00, 0x34, 0xff, 0xff, 0xff, 0x33, 0x00, 0x00, 0x00,
  0x67, 0x65, 0x73, 0x74, 0x75, 0x72, 0x65, 0x5f, 0x66, 0x6c, 0x61, 0x74,
  0x5f, 0x6d, 0x6f, 0x64, 0x65, 0x6c, 0x2f, 0x72, 0x65, 0x73, 0x68, 0x61,
  0x70, 0x65, 0x5f, 0x74, 0x6f, 0x5f, 0x38, 0x78, 0x38, 0x78, 0x31, 0x2f,
  0x52, 0x65, 0x73, 0x68, 0x61, 0x70, 0x65, 0x2f, 0x73, 0x68, 0x61, 0x70,
  0x65, 0x2f, 0x31, 0x00, 0x00, 0x00, 0x00, 0x00, 0x9a, 0xff, 0xff, 0xff,
  0x14, 0x00, 0x00, 0x00, 0x14, 0x00, 0x00, 0x00, 0x03, 0x00, 0x00, 0x00,
  0x00, 0x00, 0x00, 0x02, 0x48, 0x00, 0x00, 0x00, 0x8c, 0xff, 0xff, 0xff,
  0x39, 0x00, 0x00, 0x00, 0x67, 0x65, 0x73, 0x74, 0x75, 0x72, 0x65, 0x5f,
  0x66, 0x6c, 0x61, 0x74, 0x5f, 0x6d, 0x6f, 0x64, 0x65, 0x6c, 0x2f, 0x72,
  0x65, 0x73, 0x68, 0x61, 0x70, 0x65, 0x5f, 0x74, 0x6f, 0x5f, 0x38, 0x78,
  0x38, 0x78, 0x31, 0x2f, 0x73, 0x74, 0x72, 0x69, 0x64, 0x65, 0x64, 0x5f,
  0x73, 0x6c, 0x69, 0x63, 0x65, 0x2f, 0x73, 0x74, 0x61, 0x63, 0x6b, 0x5f,
  0x31, 0x00, 0x00, 0x00, 0x01, 0x00, 0x00, 0x00, 0x01, 0x00, 0x00, 0x00,
  0x00, 0x00, 0x0e, 0x00, 0x18, 0x00, 0x14, 0x00, 0x13, 0x00, 0x0c, 0x00,
  0x08, 0x00, 0x04, 0x00, 0x0e, 0x00, 0x00, 0x00, 0x18, 0x00, 0x00, 0x00,
  0x18, 0x00, 0x00, 0x00, 0x02, 0x00, 0x00, 0x00, 0x00, 0x00, 0x00, 0x02,
  0x48, 0x00, 0x00, 0x00, 0x04, 0x00, 0x04, 0x00, 0x04, 0x00, 0x00, 0x00,
  0x37, 0x00, 0x00, 0x00, 0x67, 0x65, 0x73, 0x74, 0x75, 0x72, 0x65, 0x5f,
  0x66, 0x6c, 0x61, 0x74, 0x5f, 0x6d, 0x6f, 0x64, 0x65, 0x6c, 0x2f, 0x72,
  0x65, 0x73, 0x68, 0x61, 0x70, 0x65, 0x5f, 0x74, 0x6f, 0x5f, 0x38, 0x78,
  0x38, 0x78, 0x31, 0x2f, 0x73, 0x74, 0x72, 0x69, 0x64, 0x65, 0x64, 0x5f,
  0x73, 0x6c, 0x69, 0x63, 0x65, 0x2f, 0x73, 0x74, 0x61, 0x63, 0x6b, 0x00,
  0x01, 0x00, 0x00, 0x00, 0x01, 0x00, 0x00, 0x00, 0x14, 0x00, 0x1c, 0x00,
  0x18, 0x00, 0x17, 0x00, 0x10, 0x00, 0x0c, 0x00, 0x08, 0x00, 0x00, 0x00,
  0x00, 0x00, 0x04, 0x00, 0x14, 0x00, 0x00, 0x00, 0x18, 0x00, 0x00, 0x00,
  0x2c, 0x00, 0x00, 0x00, 0x4c, 0x00, 0x00, 0x00, 0x01, 0x00, 0x00, 0x00,
  0x00, 0x00, 0x00, 0x09, 0x50, 0x00, 0x00, 0x00, 0x02, 0x00, 0x00, 0x00,
  0xff, 0xff, 0xff, 0xff, 0x40, 0x00, 0x00, 0x00, 0x0c, 0x00, 0x0c, 0x00,
  0x00, 0x00, 0x00, 0x00, 0x08, 0x00, 0x04, 0x00, 0x0c, 0x00, 0x00, 0x00,
  0x08, 0x00, 0x00, 0x00, 0x14, 0x00, 0x00, 0x00, 0x01, 0x00, 0x00, 0x00,
  0x80, 0xff, 0xff, 0xff, 0xff, 0xff, 0xff, 0xff, 0x00, 0x00, 0x00, 0x00,
  0x01, 0x00, 0x00, 0x00, 0x22, 0x73, 0x1d, 0x3e, 0x0a, 0x00, 0x00, 0x00,
  0x66, 0x6c, 0x61, 0x74, 0x5f, 0x69, 0x6e, 0x70, 0x75, 0x74, 0x00, 0x00,
  0x02, 0x00, 0x00, 0x00, 0x01, 0x00, 0x00, 0x00, 0x40, 0x00, 0x00, 0x00,
  0x09, 0x00, 0x00, 0x00, 0xb0, 0x00, 0x00, 0x00, 0x94, 0x00, 0x00, 0x00,
  0x84, 0x00, 0x00, 0x00, 0x74, 0x00, 0x00, 0x00, 0x60, 0x00, 0x00, 0x00,
  0x40, 0x00, 0x00, 0x00, 0x2c, 0x00, 0x00, 0x00, 0x18, 0x00, 0x00, 0x00,
  0x04, 0x00, 0x00, 0x00, 0xc0, 0xff, 0xff, 0xff, 0x19, 0x00, 0x00, 0x00,
  0x02, 0x00, 0x00, 0x00, 0x00, 0x00, 0x00, 0x19, 0xd0, 0xff, 0xff, 0xff,
  0x09, 0x00, 0x00, 0x00, 0x04, 0x00, 0x00, 0x00, 0x00, 0x00, 0x00, 0x09,
  0xe0, 0xff, 0xff, 0xff, 0x28, 0x00, 0x00, 0x00, 0x02, 0x00, 0x00, 0x00,
  0x00, 0x00, 0x00, 0x28, 0xf0, 0xff, 0xff, 0xff, 0x11, 0x00, 0x00, 0x00,
  0x02, 0x00, 0x00, 0x00, 0x00, 0x00, 0x00, 0x11, 0x0c, 0x00, 0x10, 0x00,
  0x0f, 0x00, 0x00, 0x00, 0x08, 0x00, 0x04, 0x00, 0x0c, 0x00, 0x00, 0x00,
  0x03, 0x00, 0x00, 0x00, 0x03, 0x00, 0x00, 0x00, 0x00, 0x00, 0x00, 0x03,
  0xdc, 0xff, 0xff, 0xff, 0x16, 0x00, 0x00, 0x00, 0x00, 0x00, 0x00, 0x16,
  0xe8, 0xff, 0xff, 0xff, 0x53, 0x00, 0x00, 0x00, 0x00, 0x00, 0x00, 0x53,
  0xf4, 0xff, 0xff, 0xff, 0x2d, 0x00, 0x00, 0x00, 0x00, 0x00, 0x00, 0x2d,
  0x0c, 0x00, 0x0c, 0x00, 0x0b, 0x00, 0x00, 0x00, 0x00, 0x00, 0x04, 0x00,
  0x0c, 0x00, 0x00, 0x00, 0x4d, 0x00, 0x00, 0x00, 0x00, 0x00, 0x00, 0x4d
};
unsigned int audio_yesno_micro_q_tflite_len = 5784;
