unsigned char _content_tiny_conv_tflite[] = {
  0x18, 0x00, 0x00, 0x00, 0x54, 0x46, 0x4c, 0x33, 0x00, 0x00, 0x0e, 0x00,
  0x18, 0x00, 0x04, 0x00, 0x08, 0x00, 0x0c, 0x00, 0x10, 0x00, 0x14, 0x00,
  0x0e, 0x00, 0x00, 0x00, 0x03, 0x00, 0x00, 0x00, 0x40, 0x42, 0x00, 0x00,
  0x0c, 0x00, 0x00, 0x00, 0x10, 0x00, 0x00, 0x00, 0x20, 0x00, 0x00, 0x00,
  0x01, 0x00, 0x00, 0x00, 0xec, 0x3e, 0x00, 0x00, 0x0f, 0x00, 0x00, 0x00,
  0x54, 0x4f, 0x43, 0x4f, 0x20, 0x43, 0x6f, 0x6e, 0x76, 0x65, 0x72, 0x74,
  0x65, 0x64, 0x2e, 0x00, 0x06, 0x00, 0x00, 0x00, 0xcc, 0x3e, 0x00, 0x00,
  0xc4, 0x3e, 0x00, 0x00, 0xbc, 0x3e, 0x00, 0x00, 0xb4, 0x3e, 0x00, 0x00,
  0x24, 0x00, 0x00, 0x00, 0x04, 0x00, 0x00, 0x00, 0x66, 0xbe, 0xff, 0xff,
  0x04, 0x00, 0x00, 0x00, 0x10, 0x00, 0x00, 0x00, 0xa9, 0x03, 0x00, 0x00,
  0x98, 0xfe, 0xff, 0xff, 0xc2, 0xfd, 0xff, 0xff, 0xee, 0x00, 0x00, 0x00,
  0x82, 0xbe, 0xff, 0xff, 0x04, 0x00, 0x00, 0x00, 0x80, 0x3e, 0x00, 0x00,
  0x59, 0xc6, 0xa3, 0x72, 0xa7, 0xa0, 0x47, 0x63, 0x86, 0x9b, 0x70, 0x88,
  0xc5, 0xaa, 0x86, 0x3b, 0x63, 0x81, 0x84, 0x6e, 0x6e, 0x72, 0x94, 0x7b,
  0x62, 0x90, 0x6c, 0x9e, 0x97, 0x6f, 0x8f, 0x83, 0x7d, 0x9d, 0x7d, 0x99,
  0x77, 0x8c, 0xa2, 0x6f, 0x9a, 0x60, 0x6a, 0x86, 0x81, 0x7e, 0x81, 0x7f,
  0x8d, 0x91, 0x8f, 0x71, 0x87, 0x84, 0x85, 0x84, 0x85, 0x82, 0xa0, 0xa4,
  0x86, 0x9a, 0x83, 0x74, 0x69, 0x8b, 0x90, 0x81, 0x78, 0x94, 0x81, 0x7c,
  0xa6, 0x84, 0x74, 0x67, 0x84, 0x80, 0x9a, 0x81, 0x98, 0x78, 0x86, 0x83,
  0x82, 0x77, 0x8f, 0x83, 0x6e, 0x77, 0x8e, 0x67, 0x7a, 0x94, 0x82, 0x8a,
  0x82, 0x91, 0x67, 0x6d, 0x72, 0x7d, 0x8b, 0x73, 0x86, 0x6c, 0x69, 0x86,
  0x8f, 0x6c, 0x74, 0x7e, 0x8f, 0x86, 0x7b, 0x68, 0x71, 0x72, 0x78, 0x73,
  0x88, 0x6d, 0x90, 0x83, 0x6c, 0x83, 0x9a, 0x67, 0x98, 0x86, 0x76, 0x6d,
  0x85, 0x90, 0x8c, 0x96, 0x82, 0x64, 0x87, 0x8e, 0x7c, 0xa3, 0x75, 0x7e,
  0x75, 0x77, 0x86, 0x7f, 0x75, 0x89, 0x96, 0x80, 0x7e, 0x87, 0x82, 0x74,
  0x7d, 0x87, 0x7a, 0x75, 0x7a, 0xd5, 0x99, 0x6e, 0x99, 0x82, 0x5b, 0x7c,
  0x86, 0xa4, 0x46, 0xa8, 0xbd, 0x9e, 0x9b, 0x78, 0x58, 0x73, 0x7e, 0x64,
  0x66, 0x9d, 0xa7, 0x72, 0x6a, 0xa4, 0x6e, 0xa9, 0x7b, 0x5e, 0x94, 0x93,
  0x5d, 0x7c, 0x7d, 0x7b, 0x4e, 0x97, 0xa7, 0x65, 0xb0, 0x87, 0x84, 0x94,
  0x77, 0x77, 0xa9, 0x64, 0x79, 0x7c, 0x89, 0x6d, 0xa5, 0x8c, 0x86, 0x8e,
  0x85, 0x8e, 0x86, 0x92, 0x77, 0xa5, 0x7d, 0x7b, 0x84, 0x8d, 0x7d, 0x95,
  0x70, 0x6d, 0xa8, 0x7b, 0x8c, 0x7b, 0x7e, 0x79, 0x82, 0x85, 0x91, 0x7f,
  0xa1, 0x8d, 0x84, 0x91, 0x65, 0x62, 0x78, 0x6b, 0x68, 0x7a, 0x91, 0x80,
  0x9a, 0x94, 0x69, 0x8e, 0xa0, 0x73, 0x7e, 0x89, 0x87, 0x8a, 0x7b, 0x75,
  0x7e, 0x8c, 0x85, 0x94, 0x7f, 0x85, 0x82, 0x88, 0x7e, 0x75, 0x7a, 0x80,
  0x63, 0x81, 0x81, 0x67, 0xa5, 0x71, 0x63, 0x81, 0x5d, 0x90, 0x6f, 0x65,
  0x9c, 0x84, 0x7c, 0x83, 0x7e, 0x76, 0x75, 0x6d, 0x70, 0x7c, 0x81, 0x8e,
  0x88, 0x94, 0x80, 0x95, 0x7c, 0x6c, 0x7a, 0x70, 0x77, 0x84, 0x7f, 0x72,
  0x6e, 0x6c, 0x79, 0x83, 0x86, 0x77, 0x76, 0x84, 0x70, 0xc0, 0x79, 0x40,
  0x84, 0x69, 0x69, 0x8c, 0x86, 0x99, 0x5a, 0x25, 0xd8, 0x62, 0xb5, 0xa5,
  0x18, 0x6c, 0x6f, 0x29, 0x7a, 0x87, 0xb3, 0x83, 0x4f, 0xa9, 0x7a, 0x8e,
  0x90, 0x5d, 0x8d, 0x7a, 0x68, 0x88, 0x75, 0x81, 0x5b, 0x81, 0xc9, 0x6d,
  0xab, 0x79, 0x72, 0x9a, 0x64, 0x78, 0x88, 0x6b, 0x85, 0x7a, 0x87, 0x7a,
  0x7e, 0x84, 0x7e, 0x93, 0x82, 0x75, 0x7a, 0x78, 0x85, 0xa7, 0x6b, 0x90,
  0x6d, 0x78, 0x65, 0x81, 0x79, 0x8b, 0x84, 0x81, 0x8b, 0x6e, 0x7f, 0x75,
  0x7c, 0x5d, 0x93, 0x77, 0xaa, 0x80, 0x87, 0x84, 0x72, 0x65, 0x68, 0x81,
  0x86, 0x78, 0x8b, 0x7d, 0x8a, 0x9a, 0x7e, 0x75, 0x71, 0x7c, 0x6e, 0x82,
  0x86, 0x81, 0x8c, 0x85, 0x6d, 0x7b, 0x89, 0x8b, 0x7a, 0x7e, 0x85, 0x80,
  0x8c, 0x91, 0x5b, 0x8c, 0x79, 0x76, 0x86, 0x8f, 0x8d, 0x7e, 0x6d, 0x83,
  0x65, 0x69, 0x86, 0x65, 0x77, 0x68, 0x7f, 0x8f, 0x7d, 0x77, 0x80, 0x7d,
  0x74, 0x8f, 0x8f, 0x84, 0x79, 0x94, 0x84, 0x83, 0x89, 0x6b, 0x7f, 0x75,
  0x8c, 0x84, 0x8b, 0x6b, 0x78, 0x83, 0x81, 0x7b, 0x83, 0x73, 0x8e, 0x68,
  0x93, 0xc5, 0x7b, 0x36, 0x59, 0x78, 0x7a, 0x85, 0x68, 0x85, 0x66, 0x50,
  0xd4, 0x7f, 0xa1, 0xb6, 0x22, 0x5e, 0x65, 0x42, 0x75, 0x9f, 0x9a, 0x97,
  0x50, 0x96, 0x7b, 0xa1, 0x81, 0x59, 0x78, 0x75, 0x63, 0x92, 0x69, 0x89,
  0x6c, 0x87, 0xb8, 0x87, 0xd3, 0x6f, 0x7b, 0x9a, 0x65, 0x8b, 0x9c, 0x7b,
  0x7a, 0x87, 0x9f, 0x80, 0xa8, 0x99, 0x87, 0x8b, 0x75, 0x79, 0x91, 0x96,
  0x8e, 0xa4, 0x85, 0x99, 0x71, 0x9c, 0x75, 0x75, 0x6c, 0x96, 0x90, 0x7c,
  0x89, 0x78, 0x8b, 0x70, 0x81, 0x6e, 0x8b, 0x6e, 0x9c, 0x93, 0x73, 0x87,
  0x6c, 0x63, 0x73, 0x76, 0x74, 0x7c, 0x6e, 0x6e, 0x71, 0x91, 0x8c, 0x6d,
  0x70, 0x82, 0x7e, 0x80, 0x75, 0x6d, 0x85, 0x73, 0x8c, 0x72, 0x6e, 0x74,
  0x7c, 0x76, 0x94, 0x95, 0x86, 0x8a, 0x7b, 0x82, 0x61, 0x6a, 0x7e, 0x7c,
  0x93, 0x85, 0x72, 0x85, 0x78, 0x65, 0x86, 0x88, 0x92, 0x82, 0x86, 0x8e,
  0x92, 0x79, 0x6a, 0x8c, 0x89, 0x84, 0x83, 0x7a, 0x78, 0xb0, 0x7d, 0x82,
  0x7f, 0x6f, 0x73, 0x80, 0x8e, 0x83, 0x8b, 0x93, 0x86, 0x7d, 0x72, 0x6c,
  0x96, 0x85, 0x7a, 0x72, 0x8f, 0xd0, 0x54, 0x3a, 0x47, 0x64, 0x97, 0x81,
  0x6d, 0x8e, 0x73, 0x7e, 0xbc, 0x69, 0x84, 0x9a, 0x22, 0x59, 0x5f, 0x41,
  0x62, 0xae, 0xa0, 0x8c, 0x4a, 0x9f, 0x5e, 0x8b, 0x89, 0x59, 0x9e, 0x93,
  0x61, 0x8b, 0x56, 0x69, 0x54, 0x89, 0xb3, 0x67, 0xb0, 0x82, 0x69, 0x88,
  0x75, 0x73, 0xae, 0x88, 0x63, 0x77, 0x8c, 0x75, 0xa1, 0x90, 0x8a, 0x7f,
  0x59, 0x72, 0x8a, 0x95, 0x8b, 0xb4, 0x73, 0x90, 0x74, 0x7a, 0x67, 0x87,
  0x72, 0x61, 0x8a, 0x67, 0x93, 0x88, 0x8e, 0x6d, 0x70, 0x5b, 0x9a, 0x67,
  0x9c, 0x7b, 0x61, 0x96, 0x60, 0x78, 0x67, 0x7c, 0x67, 0x7c, 0x81, 0x7c,
  0x7a, 0x9f, 0x6c, 0x79, 0x77, 0x7b, 0x84, 0x6f, 0x7f, 0x8f, 0x8a, 0x73,
  0x85, 0x84, 0x73, 0x67, 0x7d, 0x6c, 0x8f, 0x7b, 0x7e, 0x8d, 0x7b, 0x8f,
  0x69, 0x87, 0x97, 0x88, 0x93, 0x74, 0x6e, 0x74, 0x7c, 0x77, 0x7c, 0x7d,
  0x8a, 0x6b, 0x8d, 0x9a, 0x73, 0x8a, 0x62, 0x7d, 0x80, 0x82, 0x8d, 0x8c,
  0x78, 0xaf, 0x95, 0x78, 0x7c, 0x87, 0x82, 0x84, 0x70, 0x84, 0x8a, 0x6d,
  0x7e, 0x71, 0x82, 0x99, 0x85, 0x6d, 0x94, 0x7f, 0x9c, 0xb8, 0x60, 0x4f,
  0x1f, 0x40, 0x8c, 0x72, 0x63, 0xa2, 0x87, 0x8d, 0xc3, 0x79, 0xa0, 0x9d,
  0x16, 0x77, 0x5e, 0x1c, 0x75, 0xaf, 0xa9, 0xa6, 0x4b, 0x99, 0x66, 0x8a,
  0x6f, 0x43, 0x86, 0x72, 0x5a, 0x9b, 0x5a, 0x63, 0x5b, 0x6d, 0xbc, 0x7e,
  0xc6, 0x6b, 0x61, 0x8b, 0x7a, 0x82, 0x9a, 0x8c, 0x6e, 0x7e, 0x82, 0x6b,
  0x72, 0x7b, 0x91, 0x85, 0x69, 0x6f, 0x74, 0x7d, 0x7f, 0x9b, 0x7f, 0x83,
  0x68, 0x76, 0x63, 0x8c, 0x6c, 0x8d, 0x9b, 0x96, 0x87, 0x79, 0x7c, 0x7b,
  0x82, 0x69, 0x85, 0x6b, 0x9e, 0x82, 0x92, 0x82, 0x78, 0x67, 0x63, 0x87,
  0x6a, 0x8c, 0x9d, 0x76, 0x96, 0x80, 0x6f, 0x7b, 0x7b, 0x7c, 0x76, 0x87,
  0x97, 0x95, 0x84, 0x71, 0x6f, 0x74, 0x72, 0x86, 0x85, 0x8a, 0x81, 0x81,
  0x8f, 0x70, 0x71, 0x79, 0x88, 0x78, 0x85, 0x76, 0x89, 0x91, 0x79, 0x94,
  0x78, 0x72, 0x89, 0x6d, 0x85, 0x7e, 0x70, 0x83, 0x7f, 0x89, 0x79, 0x75,
  0x7d, 0x7d, 0x78, 0x76, 0x83, 0xaa, 0x78, 0x7b, 0x76, 0x6e, 0x6d, 0x75,
  0x8a, 0x83, 0x93, 0x8c, 0x8b, 0x74, 0x7a, 0x8c, 0x7b, 0x70, 0x92, 0x8e,
  0x9c, 0xa1, 0x6a, 0x4a, 0x28, 0x4c, 0xa7, 0x6c, 0x51, 0x9b, 0x71, 0x7f,
  0x9b, 0x6c, 0x92, 0x9d, 0x21, 0x79, 0x54, 0x3a, 0x79, 0xba, 0x9f, 0x9e,
  0x4b, 0x7b, 0x63, 0x8a, 0x7c, 0x57, 0x74, 0x8a, 0x65, 0x86, 0x5f, 0x6c,
  0x69, 0x77, 0xcd, 0x74, 0x9f, 0x7a, 0x81, 0x95, 0x70, 0x7a, 0xa1, 0x7f,
  0x77, 0x74, 0x92, 0x72, 0x90, 0x90, 0x6b, 0x78, 0x74, 0x79, 0x7b, 0xa1,
  0x66, 0xa8, 0x80, 0x89, 0x5e, 0x94, 0x74, 0x81, 0x7b, 0x8b, 0x91, 0x7c,
  0x79, 0x79, 0x6a, 0x72, 0x80, 0x86, 0x8d, 0x78, 0x8b, 0x84, 0x84, 0x98,
  0x5c, 0x6a, 0x81, 0x7e, 0x70, 0x6b, 0x83, 0x6d, 0x81, 0xa1, 0x7e, 0x6e,
  0x80, 0x81, 0x71, 0x8b, 0x7e, 0x8d, 0x81, 0x70, 0x92, 0x6a, 0x7b, 0x8c,
  0x6c, 0x93, 0xa0, 0x80, 0x95, 0x73, 0x6d, 0x83, 0x69, 0x6a, 0x89, 0x5f,
  0xa3, 0x76, 0x77, 0x6d, 0x71, 0x5b, 0x76, 0x71, 0x90, 0x73, 0x8a, 0x87,
  0x76, 0x75, 0x74, 0x7b, 0x7a, 0x75, 0x8f, 0x94, 0x88, 0xa5, 0x7e, 0x79,
  0x83, 0x7e, 0x6b, 0x70, 0x7f, 0x6e, 0x7f, 0x6a, 0x7d, 0x76, 0x86, 0x7d,
  0x87, 0x95, 0x7b, 0x83, 0xa9, 0xa6, 0x61, 0x2c, 0x1b, 0x71, 0x9b, 0x6d,
  0x48, 0x98, 0x72, 0x75, 0xad, 0x7f, 0xa7, 0x9a, 0x01, 0x6d, 0x4c, 0x21,
  0x85, 0xb9, 0xc2, 0x86, 0x3e, 0x87, 0x5f, 0x84, 0x98, 0x55, 0x74, 0x71,
  0x56, 0x9c, 0x76, 0x7b, 0x5f, 0x71, 0xc2, 0x6e, 0xb2, 0x6c, 0x6a, 0x9c,
  0x82, 0x72, 0x87, 0x87, 0x69, 0x8e, 0x9a, 0x75, 0xa0, 0x80, 0x69, 0x82,
  0x6b, 0x73, 0x79, 0x80, 0x80, 0xa4, 0x72, 0x85, 0x70, 0x7b, 0x6d, 0x84,
  0x76, 0x83, 0x8e, 0x93, 0x9a, 0x74, 0x7d, 0x6c, 0x87, 0x59, 0x74, 0x75,
  0x9a, 0x86, 0x83, 0x8a, 0x7d, 0x73, 0x72, 0x7b, 0x63, 0x85, 0x8b, 0x6a,
  0x8e, 0xa2, 0x76, 0x79, 0x77, 0x70, 0x79, 0x69, 0x8a, 0x87, 0x90, 0x7c,
  0x8e, 0x6d, 0x5c, 0x69, 0x7e, 0x7d, 0x9e, 0x84, 0x8e, 0x95, 0x71, 0x83,
  0x7a, 0x72, 0x92, 0x86, 0xae, 0x7f, 0x75, 0x85, 0x6d, 0x67, 0x8b, 0x70,
  0x88, 0x8f, 0x89, 0x8f, 0x6d, 0x7f, 0x70, 0x79, 0x67, 0x73, 0x77, 0x76,
  0x98, 0x96, 0x8b, 0x7b, 0x7e, 0x7d, 0x7b, 0x84, 0x83, 0x70, 0x78, 0x75,
  0x9c, 0x7e, 0x80, 0x73, 0x7e, 0x7e, 0x70, 0x67, 0xa3, 0xa9, 0x46, 0x3a,
  0x23, 0x5e, 0x94, 0x80, 0x5a, 0x86, 0x94, 0x85, 0xaa, 0x7c, 0x9e, 0x92,
  0x1a, 0x7e, 0x58, 0x2d, 0x82, 0x92, 0x95, 0x9d, 0x2d, 0x82, 0x50, 0x7f,
  0x7a, 0x4b, 0x71, 0x82, 0x69, 0x91, 0x6a, 0x60, 0x73, 0x7b, 0xa8, 0x72,
  0xa5, 0x61, 0x73, 0x86, 0x78, 0x79, 0x76, 0x77, 0x69, 0x76, 0x7e, 0x60,
  0x89, 0x94, 0x81, 0x7b, 0x73, 0x81, 0x70, 0x97, 0x87, 0xb9, 0x73, 0x8b,
  0x79, 0x83, 0x75, 0x6b, 0x6a, 0x7b, 0x92, 0x75, 0x75, 0x76, 0x73, 0x79,
  0x72, 0x61, 0x86, 0x82, 0x80, 0x76, 0x7a, 0x82, 0x70, 0x64, 0x6c, 0x6e,
  0x63, 0x92, 0x95, 0x7a, 0x71, 0xa2, 0x79, 0x74, 0x7c, 0x94, 0x84, 0x6e,
  0x90, 0x8c, 0x8b, 0x8c, 0x7d, 0x7f, 0x80, 0x6d, 0x90, 0x70, 0x83, 0x6c,
  0x76, 0x75, 0x7d, 0x81, 0x7f, 0x75, 0x89, 0x6d, 0xae, 0x84, 0x91, 0x8a,
  0x74, 0x72, 0x72, 0x8b, 0x8a, 0x8e, 0x85, 0x71, 0x83, 0x7c, 0x7f, 0x7c,
  0x87, 0x96, 0x83, 0x66, 0x6f, 0x8b, 0x88, 0x76, 0x92, 0x92, 0x8e, 0x85,
  0x74, 0x96, 0x9e, 0x6a, 0x94, 0x7f, 0x82, 0x7d, 0x8b, 0x70, 0x8a, 0x70,
  0x8f, 0xbe, 0x46, 0x37, 0x1c, 0x66, 0x88, 0x72, 0x43, 0x94, 0x64, 0xa0,
  0xbf, 0x6b, 0x8f, 0x99, 0x06, 0x68, 0x3d, 0x21, 0x79, 0xaf, 0xaf, 0x95,
  0x40, 0x87, 0x5b, 0x94, 0x95, 0x49, 0x6c, 0x84, 0x40, 0xa5, 0x5d, 0x83,
  0x5f, 0x86, 0xac, 0x80, 0xaa, 0x75, 0x85, 0x83, 0x7f, 0x87, 0x88, 0x76,
  0x60, 0x87, 0x81, 0x71, 0x96, 0x85, 0x65, 0x83, 0x75, 0x6c, 0x6b, 0x76,
  0x82, 0xa8, 0x71, 0x8e, 0x67, 0x89, 0x74, 0x81, 0x69, 0x67, 0x80, 0x7f,
  0x7d, 0x85, 0x6e, 0x5e, 0x87, 0x71, 0x85, 0x79, 0x89, 0x79, 0x76, 0x88,
  0x65, 0x84, 0x78, 0x69, 0x4a, 0x80, 0x84, 0x63, 0x99, 0x9c, 0x7b, 0x80,
  0x74, 0x84, 0x6a, 0x79, 0x76, 0x7a, 0x73, 0x91, 0x76, 0x6c, 0x6c, 0x70,
  0x6a, 0x85, 0x81, 0x86, 0x86, 0x70, 0x73, 0x87, 0x7f, 0x74, 0x7b, 0x77,
  0xa3, 0x7c, 0x77, 0x94, 0x59, 0x61, 0x8b, 0x78, 0x95, 0x77, 0x7b, 0x90,
  0x80, 0x6a, 0x7e, 0x88, 0x76, 0x78, 0x64, 0x75, 0x71, 0xb3, 0x83, 0x8e,
  0x7b, 0x75, 0x71, 0x6e, 0x76, 0x6e, 0x7c, 0x75, 0x86, 0x6e, 0x75, 0x7d,
  0x7e, 0x83, 0x83, 0x87, 0x8e, 0xa6, 0x49, 0x4f, 0x24, 0x65, 0x95, 0x69,
  0x3d, 0xa1, 0x87, 0x7c, 0xad, 0x75, 0x8b, 0x87, 0x04, 0x6e, 0x54, 0x20,
  0x84, 0xa6, 0xa7, 0x84, 0x23, 0xa6, 0x60, 0x7c, 0x97, 0x3f, 0x87, 0x70,
  0x4e, 0x8a, 0x68, 0x72, 0x5b, 0x6a, 0xa5, 0x78, 0x8f, 0x60, 0x7e, 0x7c,
  0x71, 0x71, 0x8e, 0x8a, 0x4e, 0x85, 0x93, 0x7b, 0x90, 0x97, 0x7a, 0x7f,
  0x65, 0x78, 0x7f, 0x75, 0x7e, 0xa4, 0x73, 0x81, 0x69, 0x65, 0x70, 0x76,
  0x72, 0x74, 0x7d, 0x7f, 0x7a, 0x93, 0x81, 0x78, 0x6b, 0x60, 0x74, 0x7b,
  0x87, 0x6a, 0x89, 0x98, 0x6c, 0x7d, 0x5b, 0x73, 0x5e, 0x7a, 0x8d, 0x71,
  0x84, 0x7f, 0x6d, 0x82, 0x79, 0x74, 0x82, 0x7f, 0x7f, 0x90, 0x67, 0x8c,
  0x7e, 0x88, 0x5d, 0x83, 0x79, 0x7e, 0x98, 0x7f, 0x87, 0x77, 0x7b, 0x77,
  0x7e, 0x70, 0x7e, 0x6f, 0x90, 0x7f, 0x76, 0x7d, 0x7c, 0x74, 0x63, 0x8a,
  0x9d, 0x86, 0x7b, 0x89, 0x7d, 0x8e, 0x78, 0x72, 0x6d, 0x7a, 0x90, 0x93,
  0x8a, 0xaa, 0x8d, 0x7b, 0x7d, 0x7d, 0x87, 0x85, 0x69, 0x6d, 0x90, 0x82,
  0x98, 0x69, 0x72, 0x80, 0x88, 0x61, 0x8b, 0x73, 0x9b, 0xcc, 0x38, 0x43,
  0x32, 0x67, 0xa3, 0x7a, 0x39, 0x91, 0x91, 0x72, 0xaa, 0x70, 0xa4, 0xad,
  0x03, 0x6e, 0x4b, 0x36, 0x86, 0xcc, 0xae, 0x86, 0x2b, 0xab, 0x67, 0x62,
  0x7b, 0x72, 0x7a, 0x74, 0x64, 0x81, 0x4e, 0x66, 0x43, 0x8b, 0xc9, 0x8b,
  0xa0, 0x77, 0x7a, 0x77, 0x6f, 0x7f, 0x88, 0x79, 0x68, 0x68, 0x86, 0x61,
  0x92, 0x9e, 0x7e, 0x74, 0x7a, 0x70, 0x7c, 0x91, 0x8f, 0xad, 0x8f, 0x80,
  0x78, 0x67, 0x7b, 0x93, 0x7a, 0x7a, 0x85, 0x70, 0x81, 0x6c, 0x78, 0x73,
  0x79, 0x64, 0x7e, 0x70, 0x9c, 0x7e, 0x7b, 0x91, 0x81, 0x70, 0x68, 0x77,
  0x6b, 0x86, 0x80, 0x76, 0x9b, 0x8b, 0x77, 0x8b, 0x81, 0x8a, 0x86, 0x89,
  0x77, 0x86, 0x8a, 0x89, 0x9a, 0x7b, 0x87, 0x7a, 0x6f, 0x72, 0x92, 0x6c,
  0x9a, 0x6f, 0x6f, 0x87, 0x76, 0x64, 0x75, 0x7b, 0xb2, 0x82, 0x5f, 0x70,
  0x70, 0x63, 0x7e, 0x7a, 0x77, 0x93, 0x74, 0x85, 0x84, 0x76, 0x81, 0x65,
  0x84, 0x6a, 0x81, 0x79, 0x6a, 0xa9, 0x8e, 0x7c, 0x88, 0x8f, 0x78, 0x82,
  0x6f, 0x7c, 0x75, 0x85, 0x82, 0x83, 0x86, 0x78, 0x7b, 0x93, 0x77, 0x6b,
  0x95, 0xb7, 0x48, 0x37, 0x31, 0x61, 0xa7, 0x74, 0x3d, 0x81, 0x9d, 0x8a,
  0xa6, 0x77, 0xab, 0x85, 0x02, 0x6b, 0x47, 0x12, 0x79, 0x9f, 0xa6, 0x99,
  0x2e, 0xa7, 0x69, 0x7f, 0x8d, 0x57, 0x7d, 0x7b, 0x5b, 0x93, 0x71, 0x7e,
  0x5b, 0x8f, 0xcc, 0x8b, 0xbc, 0x68, 0x72, 0x78, 0x66, 0x81, 0x92, 0x6e,
  0x59, 0x7c, 0x82, 0x6b, 0x80, 0x95, 0x67, 0x91, 0x6b, 0x75, 0x88, 0x78,
  0x6d, 0xb9, 0x7f, 0x89, 0x72, 0x6e, 0x6d, 0x84, 0x78, 0x5e, 0x83, 0x83,
  0x7c, 0x83, 0x71, 0x76, 0x64, 0x70, 0x87, 0x70, 0x91, 0x82, 0x7e, 0x96,
  0x65, 0x79, 0x6d, 0x77, 0x6f, 0x8c, 0x96, 0x71, 0x87, 0x97, 0x77, 0x76,
  0x6c, 0x9f, 0x81, 0x7d, 0x79, 0x83, 0x92, 0x7b, 0x97, 0x7b, 0x7a, 0x67,
  0x6a, 0x68, 0x94, 0x97, 0x7e, 0x86, 0x59, 0x7e, 0x5f, 0x55, 0x77, 0x89,
  0x9f, 0x71, 0x73, 0x85, 0x68, 0x75, 0x83, 0x72, 0x98, 0x81, 0x69, 0x8c,
  0x7a, 0x7c, 0x7d, 0x90, 0x74, 0x63, 0x88, 0x7f, 0x6c, 0xab, 0x7c, 0x85,
  0x6d, 0x85, 0x7f, 0x7d, 0x77, 0x7c, 0x88, 0x82, 0x8a, 0x93, 0x87, 0x68,
  0x83, 0x80, 0x8b, 0x7a, 0x8a, 0xb3, 0x62, 0x3a, 0x2b, 0x40, 0x97, 0x58,
  0x3e, 0x94, 0x77, 0x9b, 0xab, 0x7e, 0x95, 0x83, 0x01, 0x57, 0x52, 0x1c,
  0x8c, 0xaf, 0xa0, 0x8a, 0x2f, 0x9b, 0x6b, 0x79, 0x7e, 0x4f, 0x76, 0x6e,
  0x43, 0x83, 0x68, 0x67, 0x4c, 0x7b, 0xb9, 0x7b, 0xa4, 0x78, 0x73, 0x7a,
  0x5f, 0x8e, 0xac, 0x92, 0x66, 0x7b, 0x9a, 0x61, 0x72, 0x81, 0x8a, 0x96,
  0x63, 0x92, 0x65, 0x8e, 0x70, 0xa3, 0x78, 0x83, 0x64, 0x6e, 0x6a, 0x84,
  0x77, 0x6a, 0x86, 0x6b, 0x83, 0x85, 0x78, 0x78, 0x5f, 0x6e, 0x70, 0x7b,
  0x90, 0x78, 0x75, 0x77, 0x7b, 0x83, 0x55, 0x76, 0x5e, 0x94, 0x7a, 0x74,
  0x80, 0xa2, 0x7c, 0x8a, 0x70, 0x91, 0x95, 0x6b, 0x7c, 0x80, 0x69, 0x75,
  0x6a, 0x82, 0x69, 0x76, 0x78, 0x7f, 0x89, 0x8e, 0x86, 0x75, 0x60, 0x7a,
  0x6d, 0x71, 0x91, 0x79, 0x8d, 0x7c, 0x73, 0x81, 0x6e, 0x70, 0x87, 0x8f,
  0x79, 0x73, 0x7b, 0x7d, 0x68, 0x86, 0x77, 0x83, 0x7b, 0x7e, 0x63, 0x84,
  0x84, 0x83, 0x7d, 0x75, 0x7b, 0x7e, 0x89, 0x76, 0x74, 0x6b, 0x7c, 0x83,
  0x95, 0x78, 0x64, 0x7f, 0x8c, 0x80, 0x7b, 0x6e, 0xa4, 0xbc, 0x49, 0x59,
  0x27, 0x4d, 0xa9, 0x59, 0x3d, 0x8a, 0xa6, 0x91, 0xab, 0x86, 0x95, 0xb6,
  0x05, 0x82, 0x55, 0x2a, 0x84, 0xac, 0xb1, 0xa4, 0x38, 0x9b, 0x4a, 0x6e,
  0x8a, 0x58, 0x7b, 0x8b, 0x51, 0x7c, 0x5e, 0x66, 0x6f, 0x74, 0xb3, 0x84,
  0xab, 0x77, 0x75, 0x9c, 0x6d, 0x88, 0x93, 0x7e, 0x5f, 0x93, 0x96, 0x6d,
  0x94, 0x8a, 0x8f, 0x82, 0x5c, 0x78, 0x76, 0x80, 0x72, 0xa5, 0x6f, 0x89,
  0x7a, 0x73, 0x7d, 0x95, 0x5f, 0x7b, 0x7c, 0x8b, 0x8e, 0x7d, 0x5e, 0x6f,
  0x83, 0x68, 0x94, 0x7b, 0x88, 0x7b, 0x8a, 0x81, 0x67, 0x68, 0x62, 0x68,
  0x68, 0x8d, 0x77, 0x77, 0x6c, 0x97, 0x83, 0x7d, 0x6b, 0x8a, 0x75, 0x6c,
  0x7e, 0x87, 0x88, 0x89, 0x77, 0x8c, 0x7e, 0x7c, 0x75, 0x71, 0x7d, 0x75,
  0x94, 0x74, 0x69, 0x68, 0x5f, 0x72, 0x87, 0x72, 0x99, 0x8f, 0x92, 0x88,
  0x6b, 0x6a, 0x70, 0x79, 0x83, 0x7e, 0x67, 0x88, 0x7e, 0x89, 0x59, 0x88,
  0x72, 0x6c, 0x7a, 0x75, 0x85, 0xb4, 0x84, 0x78, 0x83, 0x89, 0x71, 0x7f,
  0x89, 0x6b, 0x96, 0x8c, 0x8d, 0x81, 0x6b, 0x88, 0x87, 0x7c, 0x74, 0x79,
  0x9c, 0xab, 0x49, 0x49, 0x22, 0x6a, 0xa5, 0x7d, 0x24, 0xa6, 0x88, 0x7c,
  0xbe, 0x74, 0xa1, 0x8b, 0x19, 0x78, 0x43, 0x28, 0x90, 0xa0, 0xa3, 0xa1,
  0x30, 0xa2, 0x64, 0x7f, 0x94, 0x62, 0x79, 0x89, 0x62, 0x87, 0x6d, 0x5a,
  0x71, 0x82, 0x9e, 0x85, 0xaf, 0x72, 0x73, 0x86, 0x85, 0x6b, 0x8c, 0x6e,
  0x78, 0x75, 0x94, 0x78, 0x9e, 0x9a, 0x79, 0x87, 0x63, 0x71, 0x78, 0x82,
  0x7f, 0x8e, 0x7d, 0x7e, 0x7b, 0x68, 0x6f, 0x87, 0x8b, 0x67, 0x85, 0x78,
  0x82, 0x80, 0x5f, 0x70, 0x87, 0x67, 0x68, 0x80, 0x98, 0x72, 0x84, 0x84,
  0x72, 0x64, 0x5e, 0x73, 0x56, 0x8c, 0x8d, 0x83, 0x85, 0xa4, 0x7d, 0x87,
  0x7d, 0x85, 0x8a, 0x6f, 0x86, 0x8d, 0x85, 0x88, 0x72, 0x82, 0x76, 0x70,
  0x7b, 0x85, 0x96, 0x7d, 0x84, 0x71, 0x78, 0x90, 0x75, 0x7a, 0x95, 0x69,
  0xa3, 0x6c, 0x71, 0x72, 0x6e, 0x6a, 0x69, 0x82, 0x6a, 0x8f, 0x78, 0x90,
  0x94, 0x86, 0x6f, 0x67, 0x6b, 0x91, 0x7f, 0x7f, 0x95, 0x8b, 0x8e, 0x8a,
  0x6e, 0x72, 0x78, 0x86, 0x77, 0x98, 0x97, 0x73, 0x87, 0x7c, 0x73, 0x63,
  0x76, 0x8a, 0x7b, 0x8c, 0xa7, 0xb3, 0x53, 0x4c, 0x1c, 0x47, 0xa2, 0x74,
  0x26, 0x8a, 0xa8, 0x8d, 0xa0, 0x70, 0x8d, 0x81, 0x02, 0x79, 0x39, 0x2e,
  0x7c, 0xa9, 0xbb, 0x86, 0x35, 0x94, 0x6d, 0x62, 0x8e, 0x75, 0x82, 0x99,
  0x53, 0x8f, 0x80, 0x66, 0x68, 0x8b, 0xab, 0x75, 0x9b, 0x5d, 0x80, 0x85,
  0x74, 0x81, 0x96, 0x63, 0x71, 0x63, 0x9b, 0x71, 0x7f, 0x9e, 0x74, 0x85,
  0x68, 0x6c, 0x8c, 0x90, 0x9a, 0xb2, 0x6e, 0x88, 0x69, 0x72, 0x5b, 0x6b,
  0x80, 0x6a, 0x94, 0x6e, 0x7f, 0x75, 0x76, 0x64, 0x65, 0x71, 0x82, 0x65,
  0x9b, 0x8b, 0x6b, 0x8f, 0x8b, 0x74, 0x7c, 0x7d, 0x5f, 0x90, 0x70, 0x7d,
  0x85, 0x92, 0x6f, 0x7f, 0x7d, 0x6f, 0x91, 0x74, 0x8b, 0x7a, 0x68, 0x8e,
  0x7a, 0x6e, 0x8f, 0x72, 0x8f, 0x77, 0x90, 0x85, 0x93, 0x83, 0x71, 0x75,
  0x78, 0x73, 0x7c, 0x8b, 0x96, 0x87, 0x6b, 0x79, 0x83, 0x74, 0x80, 0x78,
  0x7a, 0x77, 0x7b, 0x84, 0x8d, 0x8a, 0x6f, 0x75, 0x6c, 0x77, 0x82, 0x7a,
  0x6e, 0x90, 0x79, 0x86, 0x8f, 0x7a, 0x8e, 0x86, 0x7a, 0x7b, 0x72, 0x69,
  0x80, 0x7b, 0x78, 0x8b, 0x67, 0x7c, 0x7e, 0x6a, 0x9e, 0xb1, 0x4d, 0x67,
  0x2f, 0x44, 0xa5, 0x72, 0x3a, 0x9b, 0x94, 0x6c, 0xc7, 0x7b, 0xb8, 0xa7,
  0x1b, 0x91, 0x54, 0x37, 0x7f, 0x9f, 0xa8, 0xb0, 0x2d, 0x9d, 0x66, 0x7b,
  0x7b, 0x88, 0x88, 0x81, 0x3f, 0x9e, 0x62, 0x7b, 0x68, 0x7f, 0xc2, 0x78,
  0xb4, 0x7b, 0x6f, 0x7a, 0x75, 0x7d, 0x8f, 0x71, 0x70, 0x77, 0x92, 0x69,
  0x98, 0x8e, 0x5f, 0x79, 0x68, 0x7f, 0x75, 0x85, 0x8e, 0xa2, 0x64, 0x78,
  0x7c, 0x87, 0x66, 0x8c, 0x61, 0x7d, 0x96, 0x6b, 0x6f, 0x77, 0x7f, 0x6c,
  0x7a, 0x5c, 0x7c, 0x71, 0x80, 0x83, 0x7f, 0x83, 0x74, 0x60, 0x6b, 0x73,
  0x6b, 0x84, 0x81, 0x82, 0x70, 0x8a, 0x7e, 0x88, 0x76, 0x79, 0x7c, 0x78,
  0x80, 0x61, 0x82, 0x76, 0x77, 0x6e, 0x86, 0x80, 0x88, 0x81, 0x9a, 0x70,
  0x8a, 0x66, 0x82, 0x91, 0x6c, 0x6b, 0x8b, 0x71, 0x8f, 0x78, 0x88, 0x80,
  0x77, 0x66, 0x63, 0x7c, 0x87, 0x67, 0x74, 0x7b, 0x78, 0x84, 0x72, 0x76,
  0x78, 0x81, 0x7f, 0x7d, 0x8e, 0x91, 0x72, 0x88, 0x9e, 0x94, 0x8d, 0x8b,
  0x77, 0x87, 0x93, 0x86, 0x8f, 0x83, 0x7c, 0x6a, 0x80, 0x80, 0x7f, 0x8b,
  0xa6, 0xac, 0x4a, 0x56, 0x17, 0x54, 0xa4, 0x72, 0x26, 0x8b, 0x84, 0x7e,
  0xc4, 0x54, 0x95, 0xb2, 0x0d, 0x73, 0x40, 0x48, 0x8d, 0xaa, 0xa7, 0x99,
  0x44, 0x98, 0x61, 0x72, 0x96, 0x86, 0x76, 0x87, 0x52, 0x96, 0x68, 0x65,
  0x6c, 0x87, 0xc2, 0x7f, 0xbe, 0x7e, 0x88, 0x98, 0x62, 0x7a, 0x88, 0x91,
  0x52, 0x7c, 0x93, 0x6e, 0x9b, 0x9d, 0x75, 0x8e, 0x7e, 0x8b, 0x8e, 0x8b,
  0x98, 0xa0, 0x86, 0x8d, 0x8a, 0x82, 0x6e, 0x90, 0x80, 0x76, 0x8f, 0x74,
  0x76, 0x7a, 0x78, 0x71, 0x6c, 0x5c, 0x8a, 0x76, 0xa5, 0x7b, 0x88, 0x8a,
  0x72, 0x6a, 0x71, 0x91, 0x67, 0x7f, 0x8a, 0x68, 0x85, 0xa3, 0x7e, 0x7e,
  0x76, 0x96, 0x6a, 0x8c, 0x80, 0x94, 0x7d, 0x89, 0x91, 0x90, 0x59, 0x6a,
  0x78, 0x6e, 0x96, 0x78, 0x86, 0x82, 0x6e, 0x7d, 0x6c, 0x7f, 0x8f, 0x6d,
  0x98, 0x86, 0x7c, 0x71, 0x5b, 0x67, 0x89, 0x79, 0x83, 0x85, 0x72, 0x98,
  0x77, 0x77, 0x76, 0x75, 0x6c, 0x70, 0x80, 0x85, 0x7f, 0xa3, 0x78, 0x81,
  0x86, 0x75, 0x82, 0x65, 0x8b, 0x8d, 0x9e, 0x77, 0x6f, 0x72, 0x8c, 0x78,
  0x86, 0x7e, 0x91, 0x6e, 0xa4, 0xa9, 0x66, 0x4d, 0x28, 0x3c, 0x89, 0x65,
  0x2f, 0x9f, 0x97, 0x6d, 0xcc, 0x6f, 0xaf, 0xbc, 0x02, 0x80, 0x5b, 0x47,
  0x76, 0x9d, 0xa1, 0x9d, 0x31, 0x8a, 0x75, 0x77, 0xa0, 0x7a, 0x7a, 0x92,
  0x5b, 0x94, 0x55, 0x7e, 0x6b, 0x86, 0x9b, 0x76, 0xb7, 0x76, 0x90, 0x93,
  0x5f, 0x77, 0x8e, 0x8a, 0x6b, 0x78, 0x98, 0x7e, 0xac, 0x8b, 0x77, 0x82,
  0x75, 0x7b, 0x75, 0x8d, 0x8f, 0xb3, 0x63, 0x83, 0x68, 0x66, 0x5b, 0x69,
  0x6d, 0x6f, 0x95, 0x7b, 0x8a, 0x74, 0x7f, 0x65, 0x79, 0x62, 0x9f, 0x63,
  0xaf, 0x72, 0x7c, 0x7a, 0x69, 0x61, 0x76, 0x82, 0x5a, 0x92, 0x7b, 0x70,
  0x7f, 0xa3, 0x71, 0x7a, 0x8a, 0x6c, 0x6b, 0x92, 0x87, 0x75, 0x96, 0x8a,
  0x8a, 0x93, 0x7c, 0x89, 0x79, 0x78, 0x8e, 0x7c, 0x89, 0x68, 0x65, 0x90,
  0x6d, 0x7a, 0x8c, 0x5f, 0xad, 0x7c, 0x7e, 0x71, 0x79, 0x8b, 0x7c, 0x64,
  0x8b, 0x7d, 0x8d, 0x86, 0x80, 0x84, 0x70, 0x80, 0x72, 0x77, 0x8b, 0x76,
  0x7a, 0x94, 0x8b, 0x7a, 0x82, 0x75, 0x83, 0x73, 0x71, 0x79, 0x87, 0x6d,
  0x75, 0x6d, 0x85, 0x76, 0x85, 0x78, 0x76, 0x74, 0x9e, 0xac, 0x4d, 0x50,
  0x2f, 0x5d, 0x7a, 0x56, 0x25, 0x97, 0x9a, 0x80, 0xb9, 0x71, 0x8b, 0xa3,
  0x0a, 0x84, 0x65, 0x3b, 0x77, 0x9a, 0xa7, 0x97, 0x3b, 0xa7, 0x72, 0x80,
  0x93, 0x7a, 0x8b, 0x78, 0x60, 0x99, 0x83, 0x7b, 0x73, 0x81, 0xb1, 0x6a,
  0xb8, 0x74, 0x7b, 0x90, 0x69, 0x76, 0xac, 0x7b, 0x6f, 0x8e, 0x91, 0x6b,
  0x9d, 0x99, 0x96, 0x8d, 0x5b, 0x7a, 0x85, 0x8c, 0x77, 0xad, 0x78, 0x9a,
  0x5b, 0x8a, 0x73, 0x93, 0x74, 0x9a, 0xa4, 0x7d, 0x74, 0x8c, 0x7d, 0x76,
  0x6a, 0x77, 0x94, 0x6d, 0xa9, 0x78, 0x74, 0x94, 0x73, 0x7d, 0x73, 0x70,
  0x74, 0x8d, 0x92, 0x6e, 0x70, 0x8e, 0x6b, 0x82, 0x81, 0x77, 0x7b, 0x91,
  0x91, 0x81, 0x7b, 0x64, 0x73, 0x79, 0x89, 0x6c, 0x76, 0x83, 0x8f, 0x89,
  0x89, 0x80, 0x67, 0x8e, 0x60, 0x76, 0x87, 0x88, 0x9e, 0x76, 0x63, 0x7e,
  0x6c, 0x72, 0x85, 0x6e, 0xa5, 0x73, 0x72, 0x82, 0x83, 0x74, 0x6b, 0x7e,
  0x73, 0x82, 0x85, 0x6f, 0x87, 0x92, 0x88, 0x79, 0x8f, 0x6f, 0x91, 0x7c,
  0x6d, 0x75, 0x93, 0x85, 0x7a, 0x6f, 0x72, 0x7f, 0x75, 0x8c, 0x7a, 0x8e,
  0x90, 0xd8, 0x51, 0x5b, 0x1b, 0x24, 0x98, 0x69, 0x1c, 0xaf, 0x83, 0x68,
  0xcc, 0x73, 0xa3, 0x9c, 0x06, 0x7c, 0x4b, 0x4e, 0x9d, 0x94, 0x97, 0x96,
  0x35, 0x8d, 0x64, 0x78, 0xa8, 0x79, 0x9f, 0x9a, 0x56, 0xa2, 0x75, 0x7f,
  0x66, 0x7b, 0xc3, 0x6d, 0xbc, 0x86, 0x66, 0x98, 0x70, 0x6f, 0x8b, 0x75,
  0x85, 0x87, 0x90, 0x7a, 0xa1, 0x7b, 0x7d, 0x70, 0x77, 0x76, 0x91, 0x7b,
  0x75, 0xae, 0x82, 0x92, 0x6e, 0x87, 0x66, 0x7e, 0x8d, 0x7b, 0x95, 0x9c,
  0x81, 0x89, 0x72, 0x74, 0x71, 0x7f, 0x8b, 0x7a, 0x96, 0x86, 0x64, 0x90,
  0x87, 0x6d, 0x7f, 0x7a, 0x6d, 0x80, 0x87, 0x83, 0x89, 0x9b, 0x70, 0x74,
  0x64, 0x74, 0x91, 0x6e, 0x70, 0x83, 0x7a, 0x75, 0x8a, 0x83, 0x75, 0x74,
  0x7d, 0x73, 0x7e, 0x80, 0x7f, 0x90, 0x5f, 0x8c, 0x7b, 0x7e, 0x85, 0x86,
  0x96, 0x72, 0x80, 0x82, 0x7b, 0x7e, 0x79, 0x74, 0x95, 0x94, 0x6c, 0x89,
  0x99, 0x85, 0x6e, 0x80, 0x68, 0x7d, 0x7a, 0x79, 0x8d, 0x9d, 0x90, 0x97,
  0x82, 0x83, 0x8e, 0x82, 0x82, 0x74, 0x8b, 0x85, 0x8a, 0x70, 0x7a, 0x6f,
  0x97, 0x6a, 0x8f, 0x69, 0x7f, 0xb6, 0x39, 0x60, 0x4a, 0x6e, 0x6b, 0x74,
  0x32, 0x88, 0x7e, 0x7c, 0xd6, 0x64, 0x98, 0x84, 0x0a, 0x84, 0x6b, 0x41,
  0xba, 0xaa, 0x92, 0xa3, 0x5a, 0x8e, 0x54, 0x7f, 0xa1, 0x82, 0x9e, 0x89,
  0x73, 0x96, 0x76, 0x71, 0x64, 0x82, 0xae, 0x70, 0xa1, 0x88, 0x8d, 0x90,
  0x6b, 0x79, 0x9c, 0x7e, 0x6e, 0x80, 0x8c, 0x65, 0x85, 0x8b, 0x91, 0xa0,
  0x6b, 0x89, 0x8e, 0x92, 0x87, 0xb0, 0x7d, 0x83, 0x73, 0x73, 0x7a, 0x6d,
  0x76, 0x74, 0x84, 0x7d, 0x9e, 0x86, 0x94, 0x5e, 0x66, 0x6a, 0x85, 0x79,
  0x9b, 0x75, 0x8f, 0x9b, 0x91, 0x72, 0x70, 0x72, 0x72, 0x77, 0x76, 0x61,
  0x83, 0xac, 0x7a, 0x78, 0x83, 0x83, 0x6a, 0x85, 0x82, 0x7f, 0x77, 0x7f,
  0x91, 0x80, 0x77, 0x6d, 0x8c, 0x67, 0x8f, 0x7a, 0x77, 0x75, 0x83, 0x86,
  0x70, 0x73, 0x89, 0x7c, 0x94, 0x94, 0x8f, 0x72, 0x7f, 0x7d, 0x8c, 0x7f,
  0x99, 0x99, 0x95, 0x94, 0x79, 0x86, 0x6c, 0x83, 0x71, 0x82, 0x64, 0x83,
  0x71, 0xa1, 0x7e, 0x7c, 0x91, 0x90, 0x7c, 0x76, 0x74, 0x7f, 0x99, 0x6d,
  0x7a, 0x97, 0x70, 0x82, 0x84, 0x73, 0x85, 0x85, 0x85, 0xca, 0x70, 0x9a,
  0x67, 0x8a, 0x62, 0x68, 0x4e, 0xaf, 0x92, 0x87, 0xa8, 0x74, 0x7d, 0x31,
  0x3b, 0x88, 0x76, 0x28, 0x9d, 0x96, 0x82, 0x74, 0x61, 0x77, 0x79, 0x64,
  0x88, 0x7e, 0x98, 0x85, 0x92, 0x85, 0x72, 0x76, 0x87, 0x79, 0xb1, 0x7d,
  0xa2, 0x8a, 0x5d, 0xb1, 0x85, 0x90, 0x93, 0x7c, 0x6e, 0x72, 0x90, 0x60,
  0x87, 0x7d, 0x77, 0x6e, 0x69, 0x89, 0x7d, 0x85, 0x83, 0xc0, 0x7d, 0x76,
  0x6f, 0x72, 0x83, 0x71, 0x7d, 0x7f, 0x92, 0x7b, 0x83, 0x8b, 0x86, 0x6c,
  0x75, 0x62, 0xa6, 0x75, 0xa7, 0x88, 0x83, 0x85, 0x79, 0x82, 0x76, 0x79,
  0x5a, 0x83, 0x88, 0x80, 0x87, 0x84, 0x6f, 0x6a, 0x98, 0x8f, 0x64, 0x77,
  0x80, 0x94, 0x6d, 0x78, 0x94, 0x74, 0x62, 0x8b, 0x71, 0x71, 0x83, 0x84,
  0x91, 0x72, 0x88, 0x7c, 0x61, 0x6e, 0x6c, 0x70, 0x88, 0x6d, 0x6e, 0x8c,
  0x8b, 0x68, 0x92, 0x6d, 0x8d, 0x79, 0x9b, 0x8e, 0x76, 0x6e, 0x74, 0x7d,
  0x81, 0x84, 0x8a, 0x85, 0x86, 0x99, 0x8b, 0x84, 0x74, 0x72, 0x7e, 0x8c,
  0x88, 0x97, 0x93, 0x8d, 0x79, 0x89, 0x7a, 0x78, 0x69, 0x79, 0x70, 0x79,
  0x7d, 0xa8, 0x9a, 0xc5, 0x98, 0x8b, 0x61, 0x64, 0x84, 0x9e, 0x9e, 0x9a,
  0xb0, 0x95, 0xab, 0x6e, 0x68, 0x87, 0x85, 0x42, 0x8b, 0x9e, 0x73, 0x8a,
  0x69, 0x9d, 0x68, 0x62, 0x98, 0x77, 0x8f, 0x8c, 0x8e, 0x8f, 0x83, 0x6b,
  0x79, 0x87, 0xb5, 0x70, 0xb9, 0x79, 0x96, 0x83, 0x6c, 0x7a, 0x75, 0x8d,
  0x74, 0x84, 0x7e, 0x7b, 0x86, 0x74, 0x8c, 0x8b, 0x70, 0x94, 0x71, 0x97,
  0x89, 0xba, 0x75, 0x75, 0x6a, 0x72, 0x6f, 0x79, 0x6e, 0x6c, 0x89, 0x77,
  0x81, 0x78, 0x66, 0x83, 0x6c, 0x74, 0x84, 0x7d, 0x87, 0x86, 0x8c, 0x7b,
  0x73, 0x62, 0x87, 0x6f, 0x69, 0x77, 0x77, 0x6d, 0x70, 0x90, 0x75, 0x83,
  0x80, 0x82, 0x7c, 0x84, 0x87, 0x9f, 0x68, 0x89, 0x8f, 0x91, 0x6f, 0x99,
  0x8c, 0x87, 0x7c, 0x6e, 0x97, 0x78, 0x63, 0x95, 0x7c, 0x83, 0x82, 0x85,
  0x8f, 0x72, 0x77, 0x86, 0x87, 0x84, 0x84, 0x74, 0x7f, 0x78, 0x86, 0x8c,
  0x85, 0x7a, 0x62, 0x7e, 0x72, 0x84, 0x82, 0x8b, 0x6e, 0x90, 0x67, 0x7c,
  0x96, 0x8b, 0x8e, 0x7b, 0x7a, 0x68, 0x90, 0x90, 0x83, 0x84, 0x77, 0x82,
  0x6e, 0x6a, 0x81, 0x90, 0x78, 0x7c, 0x85, 0x3b, 0x6d, 0x63, 0x92, 0x77,
  0x67, 0x68, 0x92, 0x7a, 0x4e, 0x77, 0x68, 0x86, 0x46, 0x7c, 0x74, 0x69,
  0x9c, 0x81, 0x79, 0xa6, 0x8b, 0x8c, 0x6a, 0x7f, 0x7d, 0x72, 0x78, 0x6b,
  0x83, 0x8a, 0x7d, 0x89, 0x8b, 0x6f, 0x64, 0x89, 0x6f, 0x73, 0x7b, 0x76,
  0x85, 0x8d, 0x9c, 0x73, 0xa1, 0x7d, 0x76, 0x8f, 0x6e, 0x7b, 0x69, 0x71,
  0x7d, 0x83, 0x85, 0x6f, 0x87, 0x7b, 0x90, 0x7e, 0x81, 0x8f, 0x6b, 0x77,
  0x7b, 0x77, 0x77, 0x79, 0x7f, 0x80, 0x80, 0x8b, 0x8a, 0x76, 0x76, 0x79,
  0x7d, 0x79, 0x6a, 0x75, 0x70, 0x7e, 0x7a, 0x83, 0x80, 0x8a, 0x93, 0x73,
  0x81, 0x74, 0x8e, 0x79, 0x79, 0x82, 0x7f, 0x7e, 0x66, 0x86, 0x6d, 0x80,
  0x98, 0x7e, 0x83, 0x70, 0x7a, 0x7e, 0x81, 0x6c, 0x84, 0x7e, 0x77, 0x87,
  0x76, 0x7e, 0x8b, 0x7c, 0x61, 0x63, 0x73, 0x95, 0x8b, 0x86, 0x7e, 0x78,
  0x6e, 0x6b, 0x8b, 0x82, 0x69, 0x6c, 0x8c, 0x88, 0x7a, 0x7b, 0x6d, 0x7d,
  0x65, 0x79, 0x87, 0x6f, 0x79, 0x85, 0x6e, 0x72, 0x7f, 0x79, 0x81, 0x83,
  0x8b, 0x8d, 0x8d, 0x82, 0x81, 0x71, 0x82, 0x69, 0x79, 0x83, 0x73, 0x20,
  0x6b, 0x6e, 0x5f, 0x8c, 0x6f, 0x7b, 0xa4, 0x62, 0x5e, 0x88, 0x55, 0x90,
  0x5c, 0x73, 0x8d, 0x76, 0xa1, 0x81, 0x82, 0x88, 0x8b, 0x84, 0x71, 0x88,
  0x7b, 0x42, 0x4d, 0x77, 0x83, 0x6b, 0x7c, 0x8d, 0xa4, 0x6b, 0x6a, 0x76,
  0x79, 0x7b, 0x6c, 0x76, 0x7e, 0x79, 0x7a, 0x88, 0x7a, 0xa0, 0x90, 0x7e,
  0x80, 0x6c, 0x7d, 0x7a, 0x84, 0x6c, 0x8b, 0x7b, 0x79, 0x7d, 0x79, 0x67,
  0x8e, 0x7f, 0x8c, 0x7b, 0x89, 0x82, 0x86, 0x63, 0x6f, 0x85, 0x73, 0x99,
  0x83, 0x7f, 0x83, 0x80, 0x77, 0x89, 0x81, 0x83, 0x88, 0x9c, 0x77, 0x74,
  0x74, 0x81, 0x6d, 0x98, 0x87, 0x69, 0x85, 0x93, 0x77, 0x89, 0x8c, 0x8e,
  0x65, 0x84, 0x91, 0x81, 0x74, 0x70, 0x75, 0x67, 0x95, 0x7c, 0x91, 0x7c,
  0x7e, 0x90, 0x7b, 0x94, 0x74, 0x97, 0x74, 0x7b, 0x66, 0x7e, 0x86, 0x8e,
  0x85, 0x91, 0x80, 0x8d, 0x70, 0x6d, 0x7f, 0x8d, 0x80, 0x8b, 0x78, 0x80,
  0x80, 0x7f, 0x69, 0x76, 0x72, 0x72, 0x8f, 0x7a, 0x80, 0x7f, 0x8b, 0x88,
  0x75, 0x87, 0x76, 0x6e, 0x95, 0x79, 0x77, 0x8b, 0x8d, 0x8b, 0x74, 0x76,
  0x64, 0x8c, 0x66, 0x77, 0x3e, 0x74, 0x6f, 0x6d, 0x39, 0x4c, 0x98, 0xa5,
  0x4f, 0x9d, 0x59, 0x5d, 0x8a, 0x81, 0x82, 0x49, 0x95, 0x8d, 0x76, 0x6d,
  0xa1, 0x64, 0x67, 0x8b, 0x4d, 0x41, 0x4e, 0x71, 0x6a, 0x92, 0x65, 0x90,
  0x8b, 0x60, 0x67, 0x87, 0x77, 0x8d, 0x60, 0x88, 0x8c, 0x83, 0x91, 0x7d,
  0x8c, 0x7d, 0x83, 0x7b, 0x6a, 0x53, 0x8c, 0x80, 0x83, 0x7d, 0x85, 0x8e,
  0x82, 0x8a, 0x6b, 0x7a, 0x72, 0x83, 0x8a, 0x6f, 0x7f, 0x7c, 0x8b, 0x89,
  0x64, 0x79, 0x80, 0x9e, 0x8d, 0x77, 0x7c, 0x82, 0x7a, 0x88, 0x8b, 0x86,
  0x75, 0x7d, 0x66, 0x81, 0x6e, 0x78, 0x8f, 0x8e, 0x6a, 0x73, 0x90, 0x7d,
  0x79, 0x8c, 0x64, 0x77, 0x7a, 0x96, 0x8a, 0x72, 0x80, 0x62, 0x7b, 0x61,
  0x67, 0x7a, 0x85, 0x72, 0x7b, 0x8a, 0x6d, 0x88, 0x86, 0x7c, 0x76, 0x74,
  0x79, 0x65, 0x7f, 0x90, 0x81, 0x8b, 0x7c, 0x78, 0x74, 0x74, 0x84, 0x76,
  0x76, 0x6a, 0x84, 0x6d, 0x8f, 0x7f, 0x6e, 0x75, 0x82, 0x62, 0x70, 0x77,
  0x89, 0x85, 0x7b, 0x74, 0x82, 0x91, 0x74, 0x69, 0x67, 0x75, 0x6f, 0x86,
  0x74, 0x99, 0x70, 0x7e, 0x74, 0x82, 0x7e, 0x5a, 0xb8, 0x94, 0x5a, 0x8e,
  0x82, 0x4f, 0x9f, 0xa1, 0x70, 0x94, 0x5f, 0x81, 0x91, 0x80, 0x7e, 0x45,
  0x91, 0x61, 0x74, 0x8f, 0xb1, 0x82, 0x66, 0x90, 0x69, 0x41, 0x47, 0x79,
  0x5d, 0x88, 0x92, 0x8c, 0x8f, 0x7a, 0x79, 0x85, 0x7d, 0x75, 0x92, 0x92,
  0x8a, 0x78, 0x95, 0x71, 0x87, 0x6d, 0x69, 0x8c, 0x85, 0x82, 0x86, 0x61,
  0xa0, 0x97, 0x94, 0x8b, 0x74, 0x73, 0x8c, 0x6f, 0x64, 0x8c, 0x7f, 0x8e,
  0x79, 0x61, 0x6f, 0x72, 0x60, 0x7f, 0x80, 0x73, 0x7b, 0x72, 0x98, 0x7a,
  0x66, 0x8a, 0x70, 0x89, 0x91, 0x86, 0x7c, 0x90, 0x78, 0x7f, 0x95, 0x8d,
  0x68, 0x64, 0x86, 0x7b, 0x8c, 0x72, 0x7f, 0x83, 0x61, 0x76, 0x8c, 0x7d,
  0x6b, 0x87, 0x92, 0x80, 0x7c, 0x7a, 0x79, 0x8b, 0x8b, 0x95, 0x87, 0x89,
  0x7f, 0x89, 0x84, 0x7d, 0x86, 0x7e, 0x78, 0x6a, 0x8b, 0x7b, 0x7a, 0x98,
  0x88, 0x6a, 0x7e, 0x88, 0x70, 0x90, 0x6a, 0x8e, 0x83, 0x81, 0x8a, 0x90,
  0x87, 0x66, 0x73, 0x86, 0x92, 0x71, 0x85, 0x6c, 0x8b, 0x84, 0x6c, 0x80,
  0x78, 0x83, 0x78, 0x90, 0x7c, 0x8b, 0x6f, 0x7a, 0x6c, 0x72, 0x6e, 0x65,
  0x94, 0xca, 0x72, 0x88, 0x83, 0x58, 0x8f, 0xba, 0x5b, 0xb0, 0x76, 0x7c,
  0xad, 0x55, 0x91, 0x48, 0x8a, 0x7d, 0x96, 0x9c, 0x8a, 0x6d, 0x6f, 0xac,
  0x89, 0x4e, 0x3d, 0x7e, 0x75, 0x6a, 0x96, 0x93, 0x95, 0x83, 0x73, 0x95,
  0x92, 0x8a, 0x70, 0x7c, 0x7a, 0x7f, 0x86, 0x6b, 0x8b, 0x86, 0x57, 0x89,
  0x5e, 0x5f, 0x6e, 0x78, 0x98, 0x80, 0x84, 0x86, 0x7e, 0x6f, 0x6c, 0x6e,
  0x85, 0x88, 0x83, 0x81, 0x8c, 0x86, 0x85, 0x83, 0x94, 0x74, 0x7b, 0x9a,
  0x85, 0x7d, 0x7c, 0x8b, 0x96, 0x8f, 0x81, 0x72, 0x74, 0x91, 0x6c, 0x7d,
  0x7b, 0x73, 0x72, 0x84, 0x71, 0x88, 0x96, 0x81, 0x98, 0x89, 0x8d, 0x7a,
  0x71, 0x79, 0x8a, 0x8a, 0x7d, 0x71, 0x7f, 0x79, 0x89, 0x79, 0x6a, 0x8d,
  0x75, 0x7e, 0x81, 0x8d, 0x7d, 0x86, 0x7b, 0x8b, 0x70, 0x78, 0x93, 0x7a,
  0x83, 0x8b, 0x8f, 0x84, 0x6f, 0x71, 0x98, 0x8e, 0x6d, 0x6c, 0x87, 0x83,
  0x9c, 0x86, 0x75, 0x61, 0x86, 0x89, 0x83, 0x86, 0x79, 0x6a, 0x74, 0x7a,
  0x76, 0x8b, 0x83, 0x84, 0x81, 0x92, 0x8a, 0x6e, 0x80, 0x7c, 0x7b, 0x77,
  0x85, 0x7e, 0x98, 0x7a, 0xa4, 0xac, 0x66, 0x8e, 0xa1, 0x64, 0x91, 0xa6,
  0x52, 0xa4, 0xa1, 0x5f, 0xa5, 0x73, 0x8f, 0x4b, 0x84, 0x78, 0xb7, 0x6d,
  0xbf, 0x93, 0x5c, 0xc5, 0x78, 0x42, 0x35, 0x88, 0x60, 0x92, 0x9b, 0xab,
  0x90, 0x8b, 0x7a, 0x9c, 0x73, 0x6f, 0x84, 0x7d, 0x71, 0x7d, 0x95, 0x81,
  0x79, 0x6f, 0x5e, 0xa8, 0x84, 0x6b, 0x78, 0x6e, 0x85, 0x7d, 0x7e, 0x77,
  0x89, 0x85, 0x78, 0x8a, 0x74, 0x8a, 0x6c, 0x77, 0x73, 0x82, 0x73, 0x8e,
  0x7f, 0x7e, 0x8e, 0x69, 0x85, 0x81, 0x6c, 0x93, 0x6e, 0x80, 0x85, 0x7b,
  0x7c, 0x84, 0x84, 0x75, 0x94, 0x6f, 0x61, 0x91, 0x86, 0x61, 0x87, 0x70,
  0x76, 0x7d, 0x79, 0x7e, 0x65, 0x81, 0x80, 0x75, 0x8d, 0x7a, 0x8d, 0x86,
  0x7f, 0x83, 0x6d, 0x78, 0x6d, 0x81, 0x83, 0x94, 0x76, 0x8f, 0x86, 0x70,
  0x70, 0x89, 0x83, 0x7d, 0x86, 0x80, 0x86, 0x88, 0x80, 0x73, 0x94, 0x72,
  0x65, 0x7e, 0x9b, 0x76, 0x6e, 0x92, 0x89, 0x86, 0x85, 0x73, 0x84, 0x73,
  0x7a, 0x7e, 0x69, 0x7a, 0x7f, 0x84, 0x8f, 0x83, 0x70, 0x82, 0x8c, 0x85,
  0x8d, 0x8c, 0x85, 0x7b, 0x62, 0x7e, 0x92, 0x77, 0xaa, 0xa7, 0x71, 0xb5,
  0xb4, 0x55, 0x8a, 0xb5, 0x6a, 0x94, 0x9a, 0x56, 0xb1, 0x6b, 0x99, 0x5c,
  0x6d, 0x66, 0x9e, 0x7a, 0xab, 0x6e, 0x69, 0xc1, 0x82, 0x1d, 0x42, 0x6f,
  0x5b, 0x68, 0x9c, 0xa0, 0x92, 0x8b, 0x77, 0x8f, 0x75, 0x71, 0x82, 0x94,
  0x82, 0x69, 0x88, 0x94, 0xad, 0x8a, 0x83, 0x98, 0x63, 0x92, 0x8f, 0x74,
  0x8f, 0x86, 0x90, 0x7e, 0x86, 0x66, 0x7d, 0x75, 0x91, 0x6d, 0x8c, 0x87,
  0x74, 0x85, 0x67, 0x8a, 0x83, 0x8c, 0x78, 0x82, 0x71, 0x8c, 0x87, 0x7f,
  0x77, 0x8a, 0x99, 0x5f, 0x88, 0x77, 0x83, 0x75, 0x89, 0x80, 0x76, 0x9a,
  0x81, 0x73, 0x8b, 0x94, 0x71, 0x67, 0x77, 0x6c, 0x74, 0x83, 0x8c, 0x78,
  0x70, 0x68, 0x7c, 0x6e, 0x77, 0x7a, 0x69, 0x85, 0x73, 0x72, 0x8d, 0x7e,
  0x80, 0x78, 0x89, 0x8e, 0x80, 0x86, 0x8a, 0x86, 0x80, 0x87, 0x8f, 0x92,
  0x90, 0x8c, 0x7a, 0x86, 0x75, 0x89, 0x8d, 0x7c, 0x6e, 0x79, 0x84, 0x75,
  0x96, 0x71, 0x8e, 0x74, 0x77, 0x79, 0x7c, 0x8d, 0x7a, 0x81, 0x70, 0x7f,
  0x85, 0x7c, 0x6b, 0x89, 0x8c, 0x79, 0x93, 0x8d, 0x6c, 0xa5, 0x8c, 0x80,
  0xa4, 0xbe, 0x69, 0xbf, 0xbf, 0x51, 0x78, 0xba, 0x76, 0x97, 0x79, 0x6c,
  0xbe, 0x60, 0xa9, 0x70, 0x79, 0x7f, 0xb0, 0x9c, 0xa9, 0x99, 0x48, 0xc3,
  0x7e, 0x41, 0x40, 0x74, 0x81, 0x7c, 0x91, 0x93, 0xa7, 0x9d, 0x73, 0x90,
  0x5f, 0x7f, 0x7d, 0x9f, 0x6e, 0x80, 0x80, 0x82, 0xa3, 0x93, 0x71, 0x94,
  0x71, 0x83, 0x79, 0x80, 0x86, 0x77, 0x78, 0x7c, 0x7b, 0x6b, 0x7d, 0x7d,
  0x6d, 0x7c, 0x90, 0x94, 0x73, 0x69, 0x88, 0x87, 0x80, 0x8a, 0x97, 0x8c,
  0x84, 0x91, 0x96, 0x7e, 0x78, 0x79, 0x96, 0x6d, 0x8e, 0x8a, 0x8a, 0x94,
  0x87, 0x76, 0x8a, 0x7e, 0x8e, 0x73, 0x8d, 0x89, 0x88, 0x80, 0x78, 0x75,
  0x67, 0x6e, 0x79, 0x6a, 0x72, 0x67, 0x7d, 0x96, 0x82, 0x75, 0x8a, 0x88,
  0x86, 0x88, 0x8b, 0x7d, 0x8f, 0x8c, 0x95, 0x84, 0x78, 0x71, 0x8d, 0x80,
  0x98, 0x95, 0x7e, 0x7e, 0x6c, 0x68, 0x84, 0x86, 0x75, 0x8a, 0x8f, 0x7c,
  0x6a, 0x99, 0x7e, 0x87, 0x7c, 0x6e, 0x69, 0x77, 0x89, 0x78, 0x7c, 0x7a,
  0x83, 0x74, 0x83, 0x87, 0x73, 0x6c, 0x8c, 0x8f, 0x8a, 0x65, 0x84, 0x65,
  0x6a, 0x7a, 0x93, 0x73, 0xb4, 0xbc, 0x6d, 0xa1, 0xa8, 0x67, 0x7f, 0xbc,
  0x79, 0xc2, 0x9b, 0x51, 0xa3, 0x62, 0x80, 0x6e, 0x95, 0x73, 0xa8, 0x8e,
  0xa3, 0x9d, 0x58, 0xc3, 0x7f, 0x42, 0x24, 0x90, 0x76, 0x88, 0x90, 0x96,
  0x90, 0x97, 0x7d, 0x81, 0x5f, 0x8c, 0x6f, 0x98, 0x82, 0x87, 0xa0, 0x71,
  0xcf, 0x90, 0x8a, 0xa6, 0x77, 0x8c, 0x96, 0x84, 0x82, 0x8d, 0x7e, 0x83,
  0x7d, 0x4c, 0x74, 0x7c, 0x88, 0x75, 0x94, 0x73, 0x8b, 0x95, 0x7d, 0x7b,
  0x94, 0x86, 0x85, 0x9b, 0x96, 0x8f, 0x96, 0x8a, 0x86, 0xa1, 0x7f, 0x74,
  0x76, 0x98, 0x8c, 0x84, 0x81, 0x7d, 0x85, 0x8c, 0x96, 0x7d, 0x79, 0x85,
  0x85, 0x7f, 0x8f, 0x82, 0x7c, 0x70, 0x75, 0x6f, 0x80, 0x7c, 0x86, 0x8d,
  0x90, 0x77, 0x6e, 0x70, 0x78, 0x9c, 0x7c, 0x63, 0x6d, 0x90, 0x77, 0x83,
  0x90, 0x79, 0x81, 0x85, 0x7d, 0x99, 0x6a, 0x6d, 0x91, 0x71, 0x8e, 0x76,
  0x81, 0x8b, 0x8f, 0x8a, 0x78, 0x89, 0x67, 0x8c, 0x82, 0x70, 0x86, 0x7b,
  0x8e, 0x80, 0x94, 0x72, 0x86, 0x6f, 0x72, 0x8d, 0x86, 0x7b, 0x83, 0x77,
  0x7d, 0x8b, 0x7f, 0x79, 0x71, 0x78, 0xa3, 0x61, 0xc7, 0x98, 0x80, 0x9e,
  0xd8, 0x70, 0x7b, 0xc5, 0x62, 0x96, 0x73, 0x4e, 0xb4, 0x79, 0x99, 0x7a,
  0x8d, 0x63, 0xb4, 0x8f, 0x8e, 0x88, 0x64, 0xc7, 0x73, 0x60, 0x22, 0x80,
  0x73, 0x7c, 0x92, 0x80, 0x88, 0xad, 0x84, 0x95, 0x7d, 0x8d, 0x89, 0xa9,
  0x67, 0x83, 0x8e, 0x76, 0xa7, 0x99, 0x87, 0x87, 0x72, 0xa1, 0x72, 0x6e,
  0x73, 0x66, 0x83, 0x82, 0x88, 0x64, 0x64, 0x95, 0x7e, 0x6e, 0x8a, 0x90,
  0x82, 0x88, 0x73, 0x86, 0x8c, 0x98, 0x8d, 0xa0, 0x90, 0x8c, 0x7f, 0x8a,
  0x7c, 0x9e, 0x73, 0x7b, 0x82, 0x9b, 0x8a, 0x7e, 0x98, 0x83, 0x71, 0x85,
  0x64, 0x91, 0x8a, 0x65, 0xa1, 0x85, 0x7d, 0x97, 0x82, 0x6c, 0x83, 0x78,
  0x7c, 0x7a, 0x96, 0x6e, 0x9a, 0x87, 0x7a, 0x8c, 0x74, 0x82, 0x81, 0x7e,
  0x84, 0x88, 0x6d, 0x7f, 0x8d, 0x72, 0x92, 0x9d, 0x86, 0x8c, 0x6f, 0x7e,
  0x7e, 0x76, 0x92, 0x8b, 0x66, 0x73, 0x7f, 0x85, 0x6d, 0x72, 0x99, 0x95,
  0x85, 0x73, 0x6f, 0x7d, 0x76, 0x8f, 0x73, 0x7c, 0x5f, 0x87, 0x84, 0x98,
  0x7e, 0x6b, 0x7b, 0x97, 0x6a, 0x91, 0x80, 0x87, 0x6e, 0x94, 0x70, 0x77,
  0xb5, 0xbe, 0x8d, 0xae, 0xa4, 0x5d, 0x70, 0xb7, 0x7a, 0xa4, 0x96, 0x5b,
  0xb5, 0x77, 0x81, 0x98, 0x5b, 0x84, 0xa9, 0x90, 0x7d, 0x9c, 0x71, 0xcc,
  0x57, 0x54, 0x23, 0x8c, 0x7d, 0x6c, 0x9b, 0x98, 0x8e, 0xa3, 0x79, 0x8b,
  0x5e, 0x8d, 0x71, 0x9f, 0x6f, 0x8e, 0x92, 0x6b, 0xb4, 0x7f, 0x81, 0x8f,
  0x7b, 0x94, 0xa9, 0x8c, 0x89, 0x83, 0x9e, 0x6c, 0x77, 0x7b, 0x5e, 0x7e,
  0x65, 0x7a, 0x98, 0x80, 0x7f, 0x84, 0x75, 0x6c, 0x8b, 0x6c, 0x81, 0x76,
  0x98, 0x9c, 0x82, 0x96, 0x7c, 0x6d, 0x6f, 0x9d, 0x83, 0x7c, 0x7a, 0x81,
  0x85, 0x8a, 0x82, 0x77, 0x83, 0x67, 0x85, 0x84, 0x84, 0x7f, 0x95, 0x74,
  0x81, 0x80, 0x79, 0x8a, 0x7e, 0x88, 0x7d, 0x87, 0x72, 0x7e, 0x6b, 0x78,
  0x7d, 0x97, 0x96, 0x8f, 0x94, 0x86, 0x74, 0x94, 0x7b, 0x85, 0x85, 0x7c,
  0x8a, 0x78, 0x80, 0x77, 0x88, 0x8d, 0x76, 0x8b, 0x95, 0x70, 0x86, 0x84,
  0x85, 0x7d, 0x8a, 0x6e, 0x83, 0x81, 0x68, 0x79, 0x6c, 0x73, 0x7d, 0x97,
  0x86, 0x7d, 0x82, 0x8b, 0x70, 0x6f, 0x96, 0x87, 0x7f, 0x88, 0x70, 0x68,
  0x8b, 0xa7, 0x78, 0x73, 0xad, 0xaf, 0x73, 0xb2, 0x96, 0x6e, 0x83, 0xc4,
  0x81, 0x96, 0x79, 0x5c, 0xc5, 0x47, 0x8b, 0x7f, 0x91, 0x55, 0xa4, 0x7a,
  0x85, 0x74, 0x67, 0xc7, 0x6e, 0x50, 0x4a, 0x71, 0x78, 0x6e, 0x87, 0x81,
  0x77, 0x9d, 0x91, 0x8e, 0x45, 0x7f, 0x7d, 0xa4, 0x88, 0x72, 0x7a, 0x79,
  0x9b, 0x92, 0x69, 0x95, 0x6f, 0xa8, 0x94, 0x7e, 0x70, 0x93, 0x99, 0x7f,
  0x79, 0x6d, 0x8d, 0x97, 0x5d, 0x91, 0xa2, 0x85, 0x8b, 0x84, 0x7b, 0x82,
  0x7c, 0x8a, 0x7e, 0x85, 0x8d, 0x7d, 0x8c, 0x94, 0x81, 0x90, 0x7a, 0x75,
  0x82, 0x87, 0x8e, 0x88, 0x9c, 0x84, 0x86, 0x8c, 0x8e, 0x8b, 0x8e, 0x80,
  0x80, 0x6e, 0x79, 0x8d, 0x8d, 0x6c, 0x8f, 0x96, 0x74, 0x74, 0x74, 0x86,
  0x78, 0x7a, 0x7f, 0x7a, 0x77, 0x81, 0x91, 0x8f, 0x86, 0x71, 0x88, 0x8b,
  0x70, 0x81, 0x80, 0x7f, 0x82, 0x85, 0x7c, 0x83, 0x7a, 0x75, 0x78, 0x7c,
  0x87, 0x62, 0x8f, 0x68, 0x6e, 0x8a, 0x81, 0x90, 0x84, 0x6e, 0x86, 0x89,
  0x7b, 0x83, 0x70, 0x88, 0x70, 0x7d, 0x5e, 0x80, 0x85, 0x78, 0x75, 0x82,
  0x85, 0x86, 0x8b, 0x6b, 0x7c, 0x9a, 0x89, 0x77, 0xa2, 0xbf, 0x6a, 0x83,
  0x8e, 0x70, 0x77, 0xc7, 0x66, 0x97, 0x90, 0x5a, 0xcb, 0x81, 0x95, 0x91,
  0x80, 0x68, 0xbc, 0x85, 0x9f, 0x6d, 0x52, 0xd1, 0x5d, 0x51, 0x31, 0x7d,
  0x7a, 0x88, 0x99, 0x79, 0x8e, 0xc9, 0x89, 0x82, 0x61, 0x79, 0x72, 0x96,
  0x8d, 0x8e, 0x82, 0x90, 0xb2, 0x82, 0x74, 0xa4, 0x7b, 0x9d, 0x7c, 0x8d,
  0x76, 0x87, 0x81, 0x8f, 0x9b, 0x70, 0x72, 0x75, 0x7f, 0x68, 0x8f, 0x88,
  0x7e, 0x96, 0x86, 0x7f, 0x7e, 0x80, 0x8b, 0x83, 0x87, 0x76, 0x98, 0x74,
  0x5d, 0x91, 0x93, 0x72, 0x8e, 0x5e, 0x9b, 0x7d, 0x94, 0x7f, 0x69, 0x88,
  0x92, 0x59, 0x90, 0x89, 0x92, 0x7d, 0x80, 0xa3, 0x71, 0x71, 0x70, 0x7a,
  0x90, 0x94, 0x7f, 0x7c, 0x7f, 0x80, 0x7e, 0x81, 0x83, 0x87, 0x79, 0x8d,
  0x7d, 0x82, 0x84, 0x7d, 0x87, 0x86, 0x6f, 0x87, 0x8d, 0x95, 0x86, 0x8b,
  0x80, 0x5c, 0x66, 0x85, 0x7c, 0x89, 0x80, 0x87, 0x7c, 0x68, 0x75, 0x76,
  0x7a, 0x8d, 0x70, 0x7b, 0x8b, 0x7b, 0x83, 0x85, 0x80, 0x7e, 0x81, 0x85,
  0x80, 0x77, 0x78, 0x7f, 0x7d, 0x8d, 0x95, 0x8b, 0x78, 0x9f, 0x81, 0x73,
  0xab, 0xac, 0x76, 0xaf, 0xa4, 0x6c, 0x79, 0xd3, 0x90, 0x8f, 0x7b, 0x54,
  0xbf, 0x79, 0x74, 0x87, 0x95, 0x43, 0xaa, 0x83, 0x76, 0x7c, 0x4d, 0xbe,
  0x61, 0x60, 0x2c, 0x81, 0x6e, 0x83, 0x9b, 0x93, 0xa4, 0xbf, 0x91, 0x8d,
  0x87, 0xa2, 0x85, 0x98, 0x75, 0x6e, 0x7e, 0x7b, 0x9e, 0x84, 0x87, 0xa4,
  0x7b, 0xa5, 0x8b, 0x97, 0x62, 0x8e, 0x7d, 0x7b, 0x7a, 0x85, 0x8b, 0x7d,
  0x6b, 0x83, 0x6c, 0x64, 0x75, 0x76, 0x71, 0x76, 0x80, 0x81, 0x76, 0x98,
  0x8f, 0x87, 0x72, 0x7b, 0x6d, 0x86, 0x7b, 0x8d, 0x8e, 0x82, 0xad, 0x85,
  0x9d, 0x8b, 0x66, 0x77, 0x7a, 0x8c, 0x80, 0x85, 0x85, 0x68, 0x8c, 0x7d,
  0x7b, 0x8d, 0x6a, 0x7b, 0x9c, 0x64, 0x86, 0x7e, 0x87, 0x86, 0x7d, 0x94,
  0x6f, 0x96, 0x7d, 0x8c, 0x79, 0x7f, 0x67, 0x7e, 0x71, 0x7a, 0x94, 0x81,
  0x8d, 0x75, 0x70, 0x7f, 0x8c, 0x7c, 0x84, 0x78, 0x7f, 0x8e, 0x8c, 0x83,
  0x88, 0x6a, 0x75, 0x8e, 0x9c, 0x70, 0x72, 0x91, 0x83, 0x87, 0x8e, 0x7d,
  0x6c, 0x74, 0x74, 0x6d, 0x76, 0x76, 0x74, 0x69, 0x81, 0x7c, 0x6b, 0x80,
  0x81, 0xb2, 0x90, 0x73, 0xb7, 0xac, 0x89, 0x9d, 0xa2, 0x71, 0x4f, 0xc5,
  0x83, 0x90, 0x83, 0x63, 0xc9, 0x8a, 0x97, 0x97, 0x80, 0x50, 0x86, 0x71,
  0x86, 0x8d, 0x73, 0xb8, 0x65, 0x6d, 0x39, 0x79, 0x7c, 0x96, 0x85, 0x85,
  0x89, 0x8b, 0x77, 0x97, 0x4f, 0x9f, 0x79, 0x78, 0x85, 0x7f, 0x74, 0x6d,
  0xa8, 0x90, 0x91, 0x93, 0x78, 0x76, 0x9f, 0x64, 0x79, 0x93, 0x74, 0x8a,
  0x97, 0x59, 0x8a, 0x88, 0x7d, 0x92, 0x89, 0x80, 0x9a, 0x73, 0x7f, 0x85,
  0x8b, 0x92, 0x6f, 0x96, 0x93, 0x6f, 0x8c, 0x83, 0x6e, 0x70, 0x8b, 0x83,
  0x79, 0x75, 0x96, 0x82, 0x90, 0x7a, 0x8e, 0x87, 0x93, 0x7e, 0x96, 0x86,
  0x9f, 0x7d, 0x76, 0x7a, 0x6c, 0x73, 0x7b, 0x86, 0x79, 0x64, 0x75, 0x7f,
  0x77, 0x73, 0x91, 0x7d, 0x6e, 0x8b, 0x6d, 0x94, 0x73, 0x7c, 0x7f, 0x8c,
  0x8d, 0x7b, 0x69, 0x7f, 0x84, 0x6d, 0x68, 0x82, 0x71, 0x73, 0x69, 0x77,
  0x90, 0x90, 0x87, 0x8e, 0x73, 0x7c, 0x87, 0x84, 0x92, 0x7c, 0x8c, 0x84,
  0x8c, 0x97, 0x7d, 0x7d, 0x8a, 0x77, 0x92, 0x94, 0x72, 0x92, 0x78, 0x72,
  0x8b, 0x7f, 0x6f, 0x95, 0x7c, 0x99, 0x73, 0x6e, 0xa4, 0xa4, 0x70, 0x9b,
  0xa1, 0x58, 0x5b, 0xcc, 0x71, 0xaa, 0x76, 0x4c, 0xda, 0x5c, 0x8f, 0x7c,
  0x75, 0x55, 0x88, 0x7b, 0x87, 0x8c, 0x8a, 0xb4, 0x6e, 0x7b, 0x37, 0x73,
  0x7d, 0x99, 0x85, 0x80, 0x78, 0xb4, 0x82, 0x9c, 0x52, 0x8d, 0x77, 0x8a,
  0x7c, 0x7e, 0x8e, 0x79, 0xa6, 0x75, 0x84, 0x97, 0x85, 0x77, 0x8d, 0x80,
  0x6e, 0x6b, 0x66, 0x88, 0xa3, 0x63, 0x77, 0x84, 0x95, 0x78, 0x94, 0x76,
  0x80, 0x83, 0x94, 0x7b, 0x7e, 0x76, 0x83, 0x82, 0x90, 0x7b, 0x8e, 0x85,
  0x73, 0x7d, 0x65, 0x85, 0x70, 0x9a, 0x86, 0x91, 0x93, 0x73, 0x6c, 0x7c,
  0x82, 0x62, 0x9c, 0x7e, 0x90, 0x82, 0x96, 0x86, 0x8c, 0x81, 0x88, 0x82,
  0x8e, 0x8b, 0x82, 0x96, 0x81, 0x85, 0x8d, 0x67, 0x83, 0x82, 0x7a, 0x80,
  0x88, 0x96, 0x6d, 0x88, 0x78, 0x93, 0x83, 0x6e, 0x8e, 0x75, 0x8a, 0x87,
  0x85, 0x89, 0x76, 0x76, 0x6c, 0x84, 0x73, 0x8e, 0x6b, 0x73, 0x79, 0x78,
  0x8a, 0x64, 0x84, 0x7e, 0x6f, 0x86, 0x96, 0x97, 0x87, 0x71, 0x81, 0x93,
  0x7b, 0x86, 0x7d, 0x66, 0x6c, 0x86, 0x7d, 0x98, 0x7d, 0xa2, 0x93, 0x8e,
  0xbf, 0xc3, 0x79, 0xb3, 0xb0, 0x67, 0x5a, 0xbb, 0x53, 0x76, 0x7f, 0x71,
  0xba, 0x72, 0xa3, 0x8f, 0x7a, 0x66, 0x89, 0x88, 0x5d, 0x86, 0x71, 0xb7,
  0x82, 0x71, 0x40, 0x6c, 0x81, 0x84, 0x9d, 0x92, 0x91, 0xab, 0x8e, 0x9a,
  0x75, 0x87, 0x89, 0x76, 0x7d, 0x7e, 0x72, 0x89, 0x92, 0x99, 0xa1, 0x80,
  0x94, 0x6d, 0x98, 0x7f, 0x7e, 0x81, 0x6f, 0x74, 0x7c, 0x7a, 0x77, 0x8f,
  0x84, 0x8b, 0x80, 0x70, 0x6a, 0x88, 0x74, 0x8b, 0x88, 0x7b, 0x94, 0x9c,
  0x91, 0x88, 0x7d, 0x99, 0x4e, 0x79, 0x82, 0x80, 0x7f, 0x78, 0x9a, 0x87,
  0x83, 0x85, 0x8d, 0x86, 0x7e, 0x72, 0x77, 0x8f, 0x7e, 0x77, 0x65, 0x8e,
  0x85, 0x70, 0x86, 0x78, 0x93, 0x8b, 0x81, 0x8a, 0x77, 0x9a, 0x76, 0x78,
  0x85, 0x85, 0x86, 0x73, 0x8f, 0x67, 0x8e, 0x7d, 0x68, 0x73, 0x93, 0x7e,
  0x9e, 0x94, 0x91, 0x71, 0x8c, 0x7e, 0x78, 0x8a, 0x74, 0x89, 0x6d, 0x8a,
  0x8d, 0x7b, 0x94, 0x7e, 0x6d, 0x77, 0x6e, 0x8a, 0x6e, 0x80, 0x7d, 0x70,
  0x8a, 0x70, 0x72, 0x81, 0x93, 0x64, 0x98, 0x76, 0x7a, 0x7c, 0x65, 0x7e,
  0x77, 0x97, 0x80, 0x7c, 0xa8, 0xb2, 0x58, 0xba, 0xa0, 0x5a, 0x5f, 0xc7,
  0x52, 0x81, 0x87, 0x57, 0xd8, 0x7f, 0x8d, 0x72, 0x8c, 0x53, 0x99, 0x88,
  0x7d, 0x86, 0x60, 0x85, 0x92, 0x7c, 0x4b, 0x8c, 0x6c, 0x74, 0x8f, 0x73,
  0x85, 0x95, 0x97, 0x9b, 0x59, 0x83, 0x99, 0x87, 0x8c, 0x80, 0x8e, 0x88,
  0xa9, 0x8a, 0x76, 0x6a, 0x79, 0x7c, 0x93, 0x88, 0x93, 0x7e, 0x79, 0x78,
  0x78, 0x74, 0x7e, 0x8f, 0x98, 0x6f, 0x7f, 0x6c, 0x93, 0x74, 0x7b, 0x70,
  0x99, 0x73, 0x8a, 0x8a, 0x72, 0x6f, 0x80, 0x78, 0x71, 0x76, 0x74, 0x6f,
  0x8e, 0x99, 0x94, 0x77, 0x98, 0x85, 0x8a, 0x8c, 0x89, 0x76, 0x84, 0x7b,
  0x83, 0x76, 0x73, 0x76, 0x73, 0x7b, 0x97, 0x7c, 0x6f, 0x77, 0x8d, 0x95,
  0x74, 0x8f, 0x77, 0x62, 0x6f, 0x6b, 0x78, 0x6a, 0x86, 0x6c, 0x81, 0x8e,
  0x76, 0x88, 0x7b, 0x92, 0x81, 0x73, 0x5f, 0x87, 0x8e, 0x7e, 0x76, 0x6d,
  0x75, 0x7c, 0x84, 0x80, 0x72, 0x89, 0x86, 0x7f, 0x83, 0x76, 0x71, 0x8f,
  0x64, 0x63, 0x90, 0x80, 0x90, 0x7a, 0x90, 0x7e, 0x89, 0x8a, 0x8e, 0x89,
  0x96, 0x7c, 0x8d, 0x75, 0x5c, 0xa2, 0x83, 0x87, 0xb3, 0x90, 0x84, 0xbd,
  0xc7, 0x7a, 0x7d, 0x9a, 0x68, 0x75, 0x8b, 0x77, 0xd6, 0x83, 0x9f, 0xaf,
  0x7b, 0x64, 0x78, 0x87, 0x71, 0x79, 0x7b, 0xa5, 0x75, 0x90, 0x57, 0x7f,
  0x84, 0x74, 0x8a, 0x93, 0xa1, 0x9f, 0x95, 0x82, 0x70, 0x87, 0x88, 0x6e,
  0x86, 0x88, 0xa5, 0x8a, 0x84, 0x91, 0x71, 0x7e, 0x68, 0x86, 0x76, 0x92,
  0x7c, 0x84, 0x6d, 0x8b, 0x73, 0x5b, 0x7a, 0x80, 0x7f, 0x82, 0x95, 0x6a,
  0x75, 0x74, 0x83, 0x80, 0x88, 0x7f, 0x72, 0x89, 0x7b, 0x7b, 0x83, 0x7e,
  0x7e, 0x8a, 0x78, 0x7a, 0x81, 0xa5, 0x9f, 0x7e, 0x8f, 0x9c, 0x86, 0x90,
  0x80, 0x68, 0x6a, 0x83, 0x71, 0x74, 0x75, 0x78, 0x8d, 0x77, 0x72, 0x85,
  0x79, 0x79, 0x7b, 0x8c, 0x87, 0x79, 0x6e, 0x86, 0x8f, 0x7c, 0x74, 0x75,
  0x7d, 0x7b, 0x87, 0x67, 0x91, 0x99, 0x97, 0x9e, 0xa4, 0x98, 0x91, 0x61,
  0x79, 0x87, 0x7b, 0x7c, 0x72, 0x75, 0x7f, 0x6e, 0x84, 0x79, 0x76, 0x73,
  0x99, 0x78, 0x91, 0x7a, 0x92, 0x88, 0x7e, 0x6f, 0x88, 0x7b, 0x71, 0x82,
  0x88, 0x7d, 0x78, 0x7c, 0x85, 0x6a, 0x79, 0x71, 0x6a, 0x95, 0x90, 0x71,
  0xb1, 0xbd, 0x84, 0xaa, 0xa5, 0x82, 0x88, 0x9e, 0x55, 0x76, 0x62, 0x5c,
  0xc0, 0x7b, 0x9e, 0x92, 0x8e, 0x51, 0x88, 0x7b, 0x72, 0x9c, 0x6b, 0x88,
  0x8f, 0x7e, 0x63, 0x7d, 0x9e, 0x86, 0x8b, 0x85, 0x95, 0xa5, 0x78, 0xab,
  0x78, 0x7d, 0x81, 0x75, 0x78, 0x7e, 0x94, 0x86, 0xba, 0x85, 0x74, 0x7c,
  0x5f, 0x71, 0x89, 0x8a, 0x9c, 0x7f, 0x94, 0xa4, 0x69, 0x5f, 0x69, 0x64,
  0x9f, 0x86, 0x85, 0x83, 0x84, 0x71, 0x91, 0x77, 0x7e, 0x77, 0x81, 0x8b,
  0x89, 0x8f, 0x7d, 0x6e, 0x82, 0x7d, 0x84, 0x83, 0x73, 0x80, 0x91, 0x96,
  0xab, 0x87, 0x7d, 0x7e, 0x7a, 0x6d, 0x82, 0x95, 0x82, 0x70, 0x81, 0x71,
  0x7c, 0x6c, 0x6a, 0x7e, 0x79, 0x85, 0x6c, 0x77, 0x6c, 0x7d, 0x77, 0x86,
  0x87, 0x87, 0x8d, 0x64, 0x7f, 0x7d, 0x80, 0x97, 0x85, 0x8e, 0x81, 0x68,
  0x75, 0x70, 0x87, 0x7f, 0x77, 0x7e, 0x75, 0x70, 0x7e, 0x94, 0x7d, 0x82,
  0x90, 0x8d, 0x93, 0x76, 0x7f, 0x5a, 0x7a, 0x70, 0x82, 0x8e, 0x7e, 0x82,
  0x7f, 0x87, 0x6d, 0x7e, 0x8c, 0x72, 0x85, 0x76, 0x83, 0x8a, 0x80, 0x91,
  0x5a, 0x94, 0x91, 0x65, 0x97, 0xc2, 0x61, 0xbd, 0xa1, 0x6b, 0x92, 0x95,
  0x4c, 0x7f, 0x8c, 0x71, 0xc0, 0x9c, 0x8f, 0x8e, 0x96, 0x6b, 0x84, 0x78,
  0x60, 0x8b, 0x6e, 0x95, 0x79, 0x7c, 0x78, 0x79, 0x9e, 0x79, 0x7f, 0x85,
  0x93, 0x92, 0x66, 0x84, 0x81, 0x6d, 0x70, 0x6e, 0x8a, 0x8a, 0x86, 0x92,
  0x90, 0x84, 0x78, 0x67, 0x7d, 0x61, 0x7b, 0x6f, 0x91, 0x61, 0x7d, 0x80,
  0x70, 0x60, 0x7a, 0x7e, 0x7e, 0x86, 0x87, 0x75, 0x98, 0x91, 0x72, 0x87,
  0x98, 0x94, 0x84, 0x8c, 0x99, 0x77, 0x7e, 0x8b, 0x76, 0x83, 0x96, 0x7b,
  0x8c, 0x97, 0x83, 0x77, 0x81, 0x65, 0x70, 0x78, 0x80, 0x78, 0x7d, 0x86,
  0x7a, 0x79, 0x82, 0x84, 0x74, 0x81, 0x77, 0x8b, 0x69, 0x64, 0x73, 0x8c,
  0x7e, 0x7e, 0x95, 0x65, 0x84, 0x96, 0x74, 0x88, 0x67, 0x73, 0x69, 0x6a,
  0x76, 0x91, 0x6f, 0x7f, 0x93, 0x71, 0x76, 0x87, 0x86, 0x81, 0x63, 0x89,
  0x7b, 0x8e, 0x96, 0x7f, 0x81, 0x86, 0x88, 0x68, 0x80, 0x6e, 0x79, 0x78,
  0x87, 0x8a, 0x82, 0x72, 0x92, 0x89, 0x78, 0x84, 0x72, 0x7d, 0x96, 0x6e,
  0x82, 0x80, 0x98, 0x8b, 0x7e, 0x7a, 0xaf, 0x54, 0xba, 0xa7, 0x59, 0xa7,
  0x99, 0x63, 0xa0, 0x7e, 0x4a, 0x60, 0x86, 0x67, 0xbb, 0x91, 0x9b, 0x97,
  0x89, 0x69, 0x76, 0x8a, 0x7b, 0x81, 0x63, 0x8c, 0x9a, 0x80, 0x7a, 0x82,
  0x78, 0x75, 0x89, 0x93, 0x96, 0x98, 0x81, 0x9c, 0x71, 0x8c, 0x75, 0x72,
  0x84, 0x76, 0x9e, 0x7b, 0xac, 0x84, 0x83, 0x68, 0x64, 0x6c, 0x6b, 0x66,
  0x83, 0x80, 0x7b, 0x9f, 0x5d, 0x57, 0x8f, 0x83, 0x8a, 0x72, 0x8d, 0x6d,
  0x8b, 0x8c, 0x6c, 0x7e, 0x82, 0x72, 0x85, 0x8e, 0x85, 0x7f, 0x6b, 0x87,
  0x62, 0x8d, 0x89, 0x6b, 0x73, 0x9c, 0x8a, 0x6a, 0x7f, 0x89, 0x7d, 0x85,
  0x76, 0x84, 0x82, 0x86, 0x60, 0x88, 0x90, 0x8e, 0x72, 0x8b, 0x8a, 0x76,
  0x64, 0x76, 0x84, 0x9b, 0x7e, 0x8a, 0x7d, 0x81, 0x83, 0x83, 0x9a, 0x79,
  0x7d, 0x76, 0x6d, 0x79, 0x71, 0x8a, 0x89, 0x74, 0x89, 0x80, 0x7f, 0x7e,
  0x81, 0x6c, 0x86, 0x88, 0x72, 0x8d, 0x8f, 0x82, 0x87, 0x86, 0x8e, 0x7d,
  0x99, 0x74, 0x99, 0x87, 0x77, 0x79, 0x89, 0x76, 0x75, 0x87, 0x78, 0x71,
  0x85, 0x80, 0x68, 0x65, 0x7a, 0x71, 0x70, 0x7c, 0x98, 0x61, 0xa7, 0x4f,
  0x8f, 0x9d, 0x6d, 0x82, 0xab, 0x6c, 0x7b, 0x4c, 0x51, 0x75, 0x87, 0x7a,
  0xc9, 0xa1, 0x92, 0x9d, 0x83, 0x57, 0x96, 0x6b, 0x69, 0x9b, 0x78, 0xa0,
  0x87, 0x88, 0x8f, 0x6c, 0x83, 0x90, 0x91, 0x80, 0x95, 0x8f, 0x6a, 0x7c,
  0x69, 0x6f, 0x92, 0x80, 0x6c, 0x89, 0x86, 0x7a, 0x98, 0x95, 0x7d, 0x84,
  0x7c, 0x70, 0x89, 0x80, 0x80, 0x7c, 0x75, 0x9d, 0x6f, 0x62, 0x7f, 0x74,
  0x87, 0x72, 0x81, 0x80, 0x6c, 0x84, 0x5f, 0x7f, 0x92, 0x88, 0x85, 0x7f,
  0x7d, 0x86, 0x7b, 0x86, 0x69, 0x90, 0x8a, 0x82, 0x6e, 0x7c, 0x86, 0x75,
  0x81, 0x7b, 0x78, 0x78, 0x71, 0x65, 0x7b, 0x82, 0x8b, 0x96, 0x79, 0x81,
  0x80, 0x7d, 0x72, 0x84, 0x6f, 0x71, 0x6f, 0x8f, 0x86, 0x72, 0x81, 0x7b,
  0x76, 0x97, 0x84, 0x87, 0x68, 0x82, 0x74, 0x7f, 0x79, 0x8a, 0x6f, 0x70,
  0x8d, 0x73, 0x8d, 0x89, 0x77, 0x77, 0x8e, 0x93, 0x76, 0x96, 0x98, 0x8c,
  0x77, 0x80, 0x7d, 0x7e, 0x87, 0x70, 0x71, 0x71, 0x84, 0x76, 0x8a, 0x69,
  0x8a, 0x89, 0x60, 0x81, 0x6f, 0x7d, 0x8b, 0x76, 0x88, 0x78, 0x8d, 0x75,
  0x6f, 0x66, 0x82, 0x57, 0x9b, 0x9c, 0x7e, 0x97, 0x9a, 0x66, 0x6f, 0x5a,
  0x5f, 0x5d, 0x79, 0x95, 0x92, 0x8b, 0x7b, 0x7d, 0x8c, 0x55, 0x75, 0x82,
  0x73, 0x8a, 0x6a, 0x90, 0x7f, 0x93, 0x73, 0x89, 0x89, 0x7f, 0x89, 0x8e,
  0x92, 0x86, 0x99, 0x83, 0x6d, 0x74, 0x74, 0x7c, 0x76, 0x87, 0x87, 0x6e,
  0xa4, 0x84, 0x90, 0x83, 0x73, 0x7d, 0x6f, 0x8a, 0x83, 0x6e, 0x81, 0x77,
  0x82, 0x6f, 0x7c, 0x8d, 0x82, 0x87, 0x8b, 0x84, 0x8f, 0x77, 0x61, 0x6e,
  0x9a, 0x7b, 0x83, 0x7a, 0x80, 0x79, 0x76, 0x89, 0x84, 0x8e, 0x75, 0x77,
  0x78, 0x83, 0x84, 0x9a, 0x87, 0x85, 0x84, 0x8c, 0x8c, 0x85, 0x6a, 0x7a,
  0x82, 0x83, 0x73, 0x74, 0x86, 0x8d, 0x87, 0x7b, 0x8b, 0x73, 0x90, 0x6e,
  0x6f, 0x77, 0x82, 0x8d, 0x72, 0x7d, 0x85, 0x8a, 0x75, 0x98, 0x87, 0x64,
  0x81, 0x84, 0x86, 0x7e, 0x7b, 0x94, 0x81, 0x81, 0x88, 0x70, 0x6c, 0x7b,
  0x6b, 0x82, 0x7f, 0x7e, 0x92, 0x7c, 0x6e, 0x78, 0x6d, 0x75, 0x77, 0x83,
  0x6d, 0x70, 0x8e, 0x6d, 0x94, 0x7d, 0x88, 0x81, 0x8f, 0x8c, 0x73, 0x7d,
  0x8c, 0x93, 0x88, 0x7a, 0x83, 0x57, 0x8e, 0x78, 0x7c, 0x8d, 0x6a, 0x90,
  0x8c, 0x74, 0x69, 0x78, 0x59, 0x83, 0x5f, 0x76, 0x97, 0x8a, 0x75, 0x83,
  0x7e, 0x59, 0x83, 0x6e, 0x79, 0x88, 0x86, 0x81, 0x90, 0x7f, 0x8f, 0x7d,
  0x81, 0x6d, 0x74, 0x80, 0x78, 0x82, 0x75, 0x6b, 0x87, 0x74, 0x82, 0x78,
  0x73, 0x7e, 0x9b, 0x7d, 0x82, 0x70, 0x91, 0x75, 0x8a, 0x78, 0x6e, 0x92,
  0x7f, 0x6e, 0x7c, 0x76, 0x75, 0x78, 0x7d, 0x89, 0x8a, 0x67, 0x68, 0x94,
  0x80, 0x73, 0x6b, 0x7e, 0x76, 0x8d, 0x8b, 0x8e, 0x8f, 0x81, 0x85, 0x84,
  0x71, 0x78, 0x82, 0x75, 0x85, 0x68, 0x77, 0x8c, 0x77, 0x77, 0x89, 0x88,
  0x8b, 0x7e, 0x99, 0x83, 0x74, 0x8c, 0x7e, 0x6e, 0x6c, 0x71, 0x89, 0x6d,
  0x7d, 0x88, 0x7e, 0x6d, 0x80, 0x7e, 0x89, 0x89, 0x77, 0x9b, 0x75, 0x87,
  0x8c, 0x94, 0x89, 0x8b, 0x86, 0x90, 0x86, 0x7a, 0x7d, 0x92, 0x80, 0x78,
  0x74, 0x83, 0x77, 0x7e, 0x73, 0x89, 0x7e, 0x8a, 0x98, 0x8b, 0x71, 0x69,
  0x73, 0x5e, 0x8c, 0x93, 0x86, 0x66, 0x80, 0x7e, 0x80, 0x89, 0x93, 0x7e,
  0x78, 0x80, 0x80, 0x70, 0x7b, 0x68, 0x7a, 0x82, 0x9a, 0x57, 0x69, 0xb1,
  0x77, 0x6c, 0x9d, 0x7d, 0x74, 0x80, 0x99, 0x91, 0x40, 0x6b, 0x5e, 0x70,
  0x7b, 0x7a, 0xa7, 0xa4, 0x6c, 0x84, 0x6c, 0x98, 0x7c, 0x78, 0x9a, 0x87,
  0x79, 0x9b, 0x94, 0x8c, 0x7d, 0x78, 0x84, 0x7c, 0x72, 0x6d, 0x6d, 0x79,
  0x56, 0x78, 0x8b, 0x79, 0x7d, 0x83, 0x89, 0x80, 0x67, 0x6f, 0x6f, 0x5f,
  0x66, 0x7f, 0x74, 0x6d, 0x70, 0x7c, 0x5c, 0x89, 0x7c, 0x6c, 0x74, 0x83,
  0x7a, 0x72, 0x8d, 0x72, 0x84, 0x86, 0x6e, 0x95, 0x72, 0x78, 0x96, 0x81,
  0x75, 0x8a, 0x7e, 0x7f, 0x75, 0x6b, 0x91, 0x7d, 0x77, 0x82, 0x81, 0x74,
  0x80, 0x62, 0x7f, 0x62, 0x85, 0x6c, 0x71, 0x79, 0x8b, 0x7a, 0x80, 0x86,
  0x86, 0x7c, 0x66, 0x75, 0x89, 0x82, 0x8f, 0x8a, 0x75, 0x7a, 0x6c, 0x87,
  0x76, 0x8a, 0x76, 0x89, 0x84, 0x77, 0x8b, 0x8b, 0x7c, 0x90, 0x7d, 0x7f,
  0x79, 0x74, 0x80, 0x89, 0x85, 0x7d, 0x90, 0x8f, 0x89, 0x9d, 0x88, 0x88,
  0x78, 0x85, 0x93, 0x95, 0x8b, 0x6b, 0x6d, 0x77, 0x95, 0x6a, 0x81, 0x81,
  0x81, 0x66, 0x69, 0x91, 0x7b, 0x8c, 0x61, 0x7b, 0x8c, 0x68, 0x7d, 0x8c,
  0x97, 0x66, 0x33, 0xbd, 0x7f, 0x68, 0xb8, 0x76, 0xae, 0x92, 0x92, 0x85,
  0x61, 0x6d, 0x6c, 0x75, 0x9b, 0x71, 0xac, 0xb2, 0x85, 0x89, 0x5f, 0x8e,
  0x60, 0x72, 0x74, 0x66, 0x73, 0x97, 0x8f, 0x8a, 0x7c, 0x81, 0x68, 0x68,
  0x7b, 0x77, 0x5d, 0x8c, 0x54, 0x61, 0x8f, 0x68, 0x80, 0x75, 0x6e, 0x7f,
  0x8b, 0x88, 0x68, 0x66, 0x85, 0x7f, 0x7a, 0x68, 0x73, 0x6d, 0x82, 0x72,
  0x6b, 0x6f, 0x6c, 0x73, 0x81, 0x85, 0x7c, 0x59, 0x81, 0x73, 0x7b, 0x88,
  0x7a, 0x7f, 0x76, 0x82, 0x7e, 0x87, 0x7b, 0x6a, 0x72, 0x80, 0x87, 0x8c,
  0x7d, 0x97, 0x88, 0x80, 0x93, 0x6e, 0x84, 0x83, 0x8e, 0x7b, 0x61, 0x74,
  0x81, 0x7c, 0x75, 0x88, 0x6f, 0x5d, 0x97, 0x74, 0x82, 0x8f, 0x74, 0x6e,
  0x75, 0x6b, 0x66, 0x7e, 0x74, 0x7c, 0x72, 0x6d, 0x8b, 0x71, 0x7d, 0x90,
  0x7e, 0x8d, 0x86, 0x8c, 0x85, 0x7d, 0x8e, 0x76, 0x6d, 0x7e, 0x6d, 0x7e,
  0x89, 0x92, 0x7f, 0x7c, 0x8f, 0x86, 0x8e, 0x70, 0x79, 0x70, 0x7a, 0x92,
  0x8c, 0x83, 0x90, 0x7a, 0x97, 0x75, 0x82, 0x7f, 0x83, 0x73, 0x77, 0x82,
  0x7b, 0x92, 0x78, 0x93, 0x99, 0x4e, 0x65, 0xd3, 0x76, 0x61, 0xe6, 0x7b,
  0x98, 0x86, 0x94, 0x97, 0x78, 0x8d, 0x84, 0x52, 0xa5, 0x99, 0x73, 0xaa,
  0x6a, 0x97, 0x3d, 0x79, 0x5d, 0x79, 0x9e, 0x6f, 0x9e, 0xa2, 0x79, 0x7a,
  0xa2, 0x7b, 0x80, 0x6f, 0x79, 0x7b, 0x76, 0x7a, 0x64, 0x74, 0x8a, 0x63,
  0x8d, 0x6e, 0x8c, 0x6c, 0x6f, 0x70, 0x90, 0x75, 0x6a, 0x82, 0x8d, 0x87,
  0x7f, 0x6e, 0x6d, 0x6c, 0x6e, 0x6d, 0x7b, 0x7c, 0x87, 0x88, 0x95, 0x6f,
  0x8a, 0x88, 0x62, 0x7b, 0x68, 0x6f, 0x71, 0x8c, 0x98, 0x8f, 0x6b, 0x92,
  0x65, 0x7d, 0x76, 0x78, 0x79, 0x83, 0x7f, 0x7c, 0x7e, 0x7b, 0x83, 0x73,
  0x6d, 0x66, 0x8d, 0x7c, 0x87, 0x74, 0x86, 0x88, 0x6c, 0x56, 0x76, 0x77,
  0x95, 0x8d, 0x75, 0x78, 0x65, 0x7e, 0x7b, 0x7f, 0x61, 0x6e, 0x92, 0x70,
  0x7c, 0x82, 0x77, 0x8a, 0x84, 0x67, 0x80, 0x79, 0x88, 0x6b, 0x75, 0x7c,
  0x88, 0x76, 0x7d, 0x81, 0x8c, 0x8a, 0x8b, 0x98, 0x8f, 0x88, 0x69, 0x83,
  0x6e, 0x77, 0x86, 0x76, 0x63, 0x6d, 0x7f, 0x73, 0x77, 0x71, 0x81, 0x84,
  0x8c, 0x7f, 0x7b, 0x76, 0x88, 0x90, 0x87, 0x70, 0x7b, 0x4d, 0x74, 0xce,
  0x7c, 0x87, 0xcc, 0x6e, 0x73, 0x9b, 0xaa, 0x76, 0x4e, 0x60, 0x84, 0x62,
  0x9f, 0xa3, 0x6c, 0xbf, 0x9c, 0x75, 0x5c, 0x64, 0x62, 0x74, 0x9b, 0x67,
  0x8c, 0xb3, 0x91, 0x85, 0x96, 0x62, 0x70, 0x7d, 0x8d, 0x86, 0x79, 0x70,
  0x4d, 0x79, 0x91, 0x5e, 0x99, 0x92, 0x79, 0x93, 0x98, 0x78, 0x91, 0x71,
  0x6d, 0x66, 0x66, 0x8a, 0x77, 0x7b, 0x72, 0x68, 0x73, 0x6c, 0x7f, 0x90,
  0x97, 0x84, 0x80, 0x60, 0x91, 0x67, 0x6c, 0x83, 0x82, 0x6d, 0x95, 0x79,
  0x8f, 0x8d, 0x6e, 0x71, 0x73, 0x87, 0x7f, 0x5e, 0x6f, 0x83, 0x7a, 0x7f,
  0x91, 0x67, 0x77, 0x5e, 0x77, 0x5e, 0x79, 0x7c, 0x86, 0x6b, 0x80, 0x97,
  0x6b, 0x78, 0x7b, 0x86, 0x8a, 0x76, 0x72, 0x73, 0x96, 0x71, 0x7b, 0x90,
  0x6f, 0x79, 0x70, 0x73, 0x6b, 0x6a, 0x7a, 0x7d, 0x7c, 0x81, 0x84, 0x80,
  0x7b, 0x85, 0x6d, 0x8e, 0x8f, 0x82, 0x6e, 0x74, 0x97, 0x97, 0x92, 0x7e,
  0x8d, 0x90, 0x69, 0x72, 0x84, 0x7c, 0x80, 0x61, 0x71, 0x98, 0x95, 0x70,
  0x83, 0x87, 0x8c, 0x86, 0x84, 0x79, 0x7a, 0x86, 0x73, 0x7b, 0x64, 0x8e,
  0x7a, 0x50, 0x98, 0xb4, 0xa5, 0x85, 0xaf, 0x7c, 0x72, 0x7d, 0x98, 0x4a,
  0x5e, 0x53, 0x8b, 0x65, 0xa7, 0x72, 0x79, 0xbc, 0x98, 0x87, 0x50, 0x5c,
  0xa5, 0x74, 0x92, 0x50, 0x93, 0xb2, 0x7a, 0x8c, 0xaf, 0x7d, 0x72, 0x77,
  0x7c, 0x70, 0x63, 0x82, 0x67, 0x67, 0x80, 0x50, 0xa7, 0x67, 0x54, 0x6d,
  0x6b, 0x7c, 0x66, 0x77, 0x6d, 0x71, 0x84, 0x90, 0x7e, 0x79, 0x81, 0x68,
  0x81, 0x59, 0x5b, 0x92, 0x77, 0x7c, 0x68, 0x7f, 0x88, 0x6b, 0x58, 0x8e,
  0x62, 0x79, 0x89, 0x80, 0x87, 0x74, 0x89, 0x7e, 0x6e, 0x5c, 0x81, 0x61,
  0x88, 0x80, 0x6d, 0x82, 0xa7, 0x74, 0x71, 0x88, 0x8d, 0x74, 0x77, 0x9a,
  0x76, 0x7f, 0x77, 0x80, 0x85, 0x76, 0x85, 0x8d, 0x8d, 0x6f, 0x6d, 0x86,
  0x60, 0x78, 0x7c, 0x73, 0x78, 0x68, 0x7b, 0x8f, 0x79, 0x81, 0x8b, 0x74,
  0x6f, 0x77, 0x73, 0x7e, 0x79, 0x6d, 0x77, 0x7e, 0x6b, 0x86, 0x7a, 0x72,
  0x80, 0x87, 0x7f, 0x80, 0x8d, 0x6e, 0x80, 0x7c, 0x92, 0x78, 0x80, 0x7a,
  0x88, 0x77, 0x83, 0x6f, 0x8c, 0x81, 0x7e, 0x7c, 0x7d, 0x6c, 0x79, 0x6a,
  0x90, 0x83, 0x78, 0x77, 0x6b, 0x5f, 0xa3, 0xbd, 0xaf, 0xa9, 0x96, 0x7b,
  0x4a, 0x8d, 0x84, 0x4e, 0x53, 0x5f, 0x8b, 0x71, 0x81, 0x9b, 0x6c, 0xb5,
  0x85, 0x66, 0x66, 0x7d, 0x89, 0x6c, 0x9b, 0x52, 0x87, 0xbf, 0x95, 0x75,
  0x9b, 0x6c, 0x8e, 0x90, 0x85, 0x80, 0x50, 0x8d, 0x53, 0x76, 0x85, 0x63,
  0xa4, 0x6c, 0x70, 0x80, 0x73, 0x6b, 0x89, 0x71, 0x73, 0x66, 0x8f, 0x87,
  0x81, 0x68, 0x7f, 0x4d, 0x70, 0x62, 0x8a, 0x80, 0x6a, 0x91, 0x89, 0x6b,
  0x89, 0x6c, 0x5d, 0x8b, 0x60, 0x7d, 0x86, 0x84, 0x79, 0x8d, 0x77, 0x71,
  0x74, 0x7f, 0x7d, 0x6f, 0x6f, 0x8d, 0x81, 0x81, 0x79, 0x8c, 0x8b, 0x8a,
  0x82, 0x6e, 0x89, 0x91, 0x8c, 0x73, 0x6a, 0x6a, 0x83, 0x8d, 0x73, 0x6a,
  0x80, 0x6e, 0x88, 0x7a, 0x86, 0x81, 0x7d, 0x72, 0x88, 0x65, 0x88, 0x8d,
  0x6d, 0x80, 0x85, 0x95, 0x6f, 0x7f, 0x96, 0x82, 0x94, 0x7d, 0x84, 0x8e,
  0x72, 0x8d, 0x91, 0x89, 0x7f, 0x97, 0x90, 0x8c, 0x82, 0x7a, 0x77, 0x72,
  0x88, 0x76, 0x6d, 0x7b, 0x6e, 0x77, 0x6f, 0x8b, 0x7a, 0x76, 0x63, 0x72,
  0x65, 0x6e, 0x71, 0x8a, 0x6d, 0x67, 0x67, 0x89, 0x60, 0x58, 0xaf, 0xa4,
  0xf1, 0xb7, 0xab, 0xa9, 0x4f, 0x9f, 0x9c, 0x5c, 0x80, 0x68, 0x7f, 0x76,
  0x86, 0xa3, 0x39, 0xac, 0x69, 0x79, 0x48, 0x83, 0x99, 0x88, 0xbd, 0x6a,
  0x7b, 0x94, 0x93, 0x7f, 0xae, 0x57, 0x77, 0x77, 0x8c, 0x5f, 0x67, 0x78,
  0x6f, 0x8e, 0xa6, 0x5e, 0x9c, 0x85, 0x61, 0x8d, 0x49, 0x7a, 0x8a, 0x64,
  0x89, 0x74, 0x76, 0x8c, 0x86, 0x75, 0x84, 0x5a, 0x83, 0x6b, 0x84, 0x70,
  0x91, 0x83, 0x81, 0x6b, 0x84, 0x81, 0x6c, 0x72, 0x62, 0x67, 0x7a, 0x7f,
  0x84, 0x91, 0x91, 0x96, 0x84, 0x74, 0x74, 0x79, 0x93, 0x8a, 0x81, 0x8b,
  0x92, 0x94, 0x85, 0x7c, 0x85, 0x82, 0x73, 0x69, 0x7b, 0x8d, 0x83, 0x83,
  0x93, 0x7c, 0x93, 0x7c, 0x6f, 0x70, 0x88, 0x88, 0x76, 0x8e, 0x86, 0x82,
  0x86, 0x7e, 0x84, 0x7b, 0x6b, 0x6b, 0x89, 0x92, 0x90, 0x7c, 0x88, 0x83,
  0x8e, 0x78, 0x6f, 0x86, 0x74, 0x80, 0x90, 0x5f, 0x82, 0x89, 0x8c, 0x85,
  0x92, 0x78, 0x77, 0x8b, 0x88, 0x6a, 0x7b, 0x88, 0x7c, 0x8b, 0x6a, 0x66,
  0x87, 0x7f, 0x67, 0x86, 0x89, 0x80, 0x78, 0x8a, 0x6e, 0x78, 0x83, 0x83,
  0x98, 0x30, 0xc5, 0xb9, 0xdd, 0xa3, 0xc0, 0xad, 0x36, 0x89, 0x93, 0x43,
  0x57, 0x6d, 0x89, 0x81, 0x7e, 0x9d, 0x43, 0x97, 0x89, 0x78, 0x6d, 0x81,
  0x9f, 0x7e, 0xb6, 0x52, 0x88, 0xc1, 0x92, 0xb1, 0xa0, 0x67, 0x6c, 0x4c,
  0x98, 0x6b, 0x62, 0x7e, 0x56, 0x5c, 0x8e, 0x66, 0x9e, 0x99, 0x53, 0x6a,
  0x5c, 0x87, 0x77, 0x7d, 0x85, 0x79, 0x7f, 0x7d, 0x8c, 0x72, 0x6f, 0x6d,
  0x7b, 0x63, 0x7d, 0x7b, 0x9f, 0x8a, 0x7b, 0x71, 0x87, 0x82, 0x7a, 0x7e,
  0x72, 0x7a, 0x7f, 0x6e, 0x7d, 0x7f, 0x7c, 0x7c, 0x7a, 0x78, 0x84, 0x69,
  0x87, 0x7e, 0x7d, 0x7a, 0x6b, 0x97, 0x90, 0x86, 0x8e, 0x5c, 0x85, 0x99,
  0x98, 0x78, 0x77, 0x85, 0x78, 0x75, 0x7f, 0x9e, 0x89, 0x86, 0x85, 0x74,
  0x99, 0x85, 0x9d, 0x6a, 0x76, 0x93, 0x91, 0x72, 0x81, 0x90, 0x78, 0x97,
  0x74, 0x8c, 0x95, 0x81, 0x7f, 0x61, 0x8e, 0x8d, 0x6b, 0x87, 0x82, 0x85,
  0x6d, 0x66, 0x83, 0x7e, 0x6e, 0x75, 0x81, 0x74, 0x74, 0x76, 0x94, 0x7f,
  0x63, 0x77, 0x87, 0x83, 0x7d, 0x71, 0x7d, 0x89, 0x74, 0x7c, 0x95, 0x7c,
  0x6e, 0x80, 0x7d, 0x77, 0x6b, 0x74, 0xc7, 0x97, 0xbf, 0x88, 0x9c, 0xb4,
  0x50, 0xa5, 0x91, 0x43, 0x65, 0x5c, 0xb3, 0x7e, 0x99, 0x99, 0x3d, 0x8e,
  0x80, 0x6c, 0x6c, 0x80, 0xaa, 0x71, 0x7f, 0x86, 0x99, 0x8e, 0x90, 0x79,
  0xa9, 0x57, 0x7a, 0x5a, 0x92, 0x63, 0x4a, 0x84, 0x77, 0x7b, 0x8f, 0x73,
  0x9f, 0x74, 0x58, 0x7b, 0x51, 0x6c, 0x6b, 0x65, 0x8c, 0x93, 0x6d, 0x76,
  0x9f, 0x7b, 0x92, 0x78, 0x87, 0x76, 0x89, 0x8d, 0x79, 0x74, 0x7c, 0x7a,
  0x6f, 0x79, 0x7f, 0x84, 0x8f, 0x72, 0x96, 0x6c, 0x78, 0x8e, 0x74, 0x75,
  0x79, 0x72, 0x94, 0x73, 0xa3, 0x7f, 0x6f, 0x84, 0x9a, 0x9b, 0x8b, 0x72,
  0x78, 0x6a, 0x60, 0x7b, 0x98, 0x72, 0x80, 0x82, 0x87, 0x80, 0x7c, 0x8b,
  0x7d, 0x68, 0x86, 0x75, 0x9c, 0x9e, 0x99, 0x83, 0x83, 0x78, 0x8b, 0x79,
  0x8c, 0x96, 0x6e, 0x8d, 0x73, 0x8b, 0x99, 0x86, 0x87, 0x95, 0x7d, 0x96,
  0x81, 0x89, 0x7b, 0x6e, 0x78, 0x6a, 0x7e, 0x8c, 0x83, 0x77, 0x92, 0x98,
  0x96, 0x76, 0x87, 0x6a, 0x6d, 0x8d, 0x88, 0x87, 0x96, 0x86, 0x72, 0x75,
  0x81, 0x72, 0x8e, 0x72, 0x84, 0x8d, 0x89, 0x8e, 0x6d, 0x5f, 0xdf, 0x98,
  0xbd, 0xa2, 0x8a, 0xa4, 0x47, 0x95, 0x80, 0x3a, 0x71, 0x63, 0x95, 0x76,
  0x86, 0x95, 0x2b, 0x7d, 0x6a, 0x5e, 0x6f, 0x8d, 0xa6, 0x7f, 0xa4, 0x7e,
  0xa2, 0xa1, 0x8a, 0x9a, 0xa8, 0x6b, 0x7c, 0x6e, 0x78, 0x60, 0x6e, 0x6e,
  0x64, 0x5f, 0x7b, 0x85, 0x97, 0x9a, 0x47, 0x8a, 0x59, 0x7d, 0x74, 0x8a,
  0x76, 0x70, 0x85, 0x7c, 0xb9, 0x73, 0x84, 0x6f, 0x84, 0x57, 0x91, 0x86,
  0x7e, 0x8f, 0x79, 0x69, 0x91, 0x6d, 0x7f, 0x6b, 0x82, 0x6b, 0x74, 0x84,
  0x89, 0x8f, 0x6d, 0x7d, 0x82, 0x6a, 0x95, 0x58, 0x81, 0x76, 0x8b, 0x8b,
  0x82, 0x79, 0x76, 0x86, 0x86, 0x72, 0x76, 0x8c, 0x8d, 0x69, 0x7a, 0x7d,
  0x87, 0x70, 0x8f, 0x8b, 0x8f, 0x7e, 0x7c, 0x60, 0x93, 0x93, 0x99, 0x85,
  0x86, 0x7e, 0x96, 0x88, 0x7c, 0x86, 0x5c, 0x85, 0x7f, 0x73, 0x69, 0x8f,
  0x83, 0x95, 0x7b, 0x8c, 0x79, 0x80, 0x87, 0x75, 0x87, 0x8e, 0x90, 0x81,
  0x89, 0x84, 0x97, 0x87, 0x8e, 0x88, 0x91, 0x8c, 0x8e, 0x67, 0x8b, 0x98,
  0x82, 0x89, 0x7e, 0x8f, 0x8d, 0x76, 0x77, 0x6d, 0x81, 0x7f, 0x8c, 0x71,
  0x79, 0x72, 0xbe, 0xb7, 0xbd, 0xaa, 0xaa, 0x91, 0x6c, 0xa0, 0x71, 0x65,
  0x7b, 0x67, 0x88, 0x8b, 0x85, 0xa4, 0x28, 0x7a, 0x6d, 0x50, 0x77, 0x79,
  0xa5, 0x6f, 0xa6, 0x86, 0xa7, 0xa5, 0x97, 0x9d, 0x9c, 0x81, 0x60, 0x6a,
  0x98, 0x6d, 0x51, 0x7c, 0x64, 0x52, 0x80, 0x82, 0x90, 0xab, 0x69, 0x8a,
  0x59, 0x67, 0x88, 0x5e, 0x6a, 0x8f, 0x6b, 0x7d, 0x99, 0x61, 0x6e, 0x6a,
  0x80, 0x5e, 0x76, 0x75, 0x7c, 0x82, 0x7f, 0x70, 0x88, 0x71, 0x79, 0x6b,
  0x5e, 0x71, 0x83, 0x8c, 0x7d, 0x95, 0x8a, 0x8f, 0x71, 0x6a, 0x7a, 0x65,
  0x8a, 0x8d, 0x67, 0x92, 0x7e, 0x7e, 0x83, 0x79, 0x91, 0x83, 0x8b, 0x79,
  0x7c, 0x97, 0x7d, 0x96, 0x7c, 0x6e, 0x8f, 0x91, 0x80, 0x73, 0x6f, 0x7e,
  0x81, 0x74, 0x8d, 0x78, 0x85, 0x7b, 0x81, 0x8b, 0x83, 0x9a, 0x7c, 0x7c,
  0x6f, 0x91, 0x8b, 0x76, 0x6e, 0x96, 0x8a, 0x7c, 0x88, 0x8b, 0x7f, 0x91,
  0x79, 0x6f, 0x98, 0x89, 0x87, 0x84, 0x87, 0x6c, 0x8e, 0x6a, 0x82, 0x84,
  0x8f, 0x77, 0x82, 0x80, 0x70, 0x8e, 0x91, 0x97, 0x8d, 0x75, 0x7e, 0x80,
  0x9e, 0x96, 0x81, 0x88, 0x57, 0x69, 0xd4, 0xb3, 0xe7, 0x9b, 0xaa, 0x9c,
  0x75, 0xa4, 0x99, 0x5e, 0x6c, 0x76, 0xa2, 0x68, 0x8e, 0x86, 0x2f, 0x77,
  0x81, 0x53, 0x87, 0x90, 0xb8, 0x80, 0x9d, 0x8e, 0x84, 0x8f, 0x8f, 0xa5,
  0xaf, 0x6a, 0x61, 0x7b, 0x7b, 0x70, 0x40, 0x77, 0x59, 0x62, 0x92, 0x7a,
  0x9a, 0xb4, 0x60, 0x71, 0x64, 0x5c, 0x91, 0x7b, 0x77, 0x76, 0x69, 0x78,
  0xa1, 0x80, 0x80, 0x5e, 0x72, 0x6a, 0x76, 0x77, 0x91, 0x89, 0x89, 0x8d,
  0x7e, 0x6c, 0x7b, 0x85, 0x6c, 0x73, 0x78, 0x8c, 0x82, 0x7e, 0x85, 0x7a,
  0x86, 0x80, 0x6c, 0x6d, 0x85, 0x69, 0x8f, 0x80, 0x89, 0x80, 0x86, 0x98,
  0x88, 0x63, 0x73, 0x8c, 0x99, 0x8b, 0x75, 0x89, 0x90, 0x67, 0x85, 0x93,
  0x83, 0x90, 0x74, 0x92, 0x89, 0x84, 0x97, 0x92, 0x8a, 0x76, 0x7f, 0x75,
  0x9b, 0x7e, 0x78, 0x81, 0x80, 0x9a, 0x86, 0x9a, 0x86, 0x7e, 0x79, 0x83,
  0x74, 0x86, 0x7d, 0x81, 0x91, 0x8b, 0x88, 0x79, 0x93, 0x7c, 0x95, 0x8c,
  0x92, 0x8e, 0x6a, 0x70, 0x7e, 0x72, 0x92, 0x89, 0x67, 0x7a, 0x6c, 0x78,
  0x73, 0x72, 0x7b, 0x72, 0x78, 0x8a, 0x76, 0x7b, 0x7b, 0x5c, 0xc4, 0x8b,
  0xc9, 0xa4, 0x86, 0x9f, 0x62, 0x86, 0xbc, 0x3b, 0x89, 0x6a, 0x7b, 0x66,
  0x85, 0x99, 0x39, 0x84, 0x4d, 0x54, 0x83, 0xa2, 0x96, 0x6f, 0x8f, 0x8c,
  0xa0, 0x73, 0x9c, 0x8b, 0x9e, 0x5e, 0x73, 0x7e, 0x73, 0x6c, 0x4b, 0x61,
  0x63, 0x7c, 0x9c, 0x7d, 0x92, 0x85, 0x5f, 0x70, 0x5e, 0x77, 0x84, 0x49,
  0x65, 0x6b, 0x72, 0x69, 0x9c, 0x6c, 0x78, 0x63, 0x6e, 0x5a, 0x82, 0x62,
  0x87, 0x69, 0x84, 0x87, 0x8b, 0x73, 0x78, 0x7b, 0x78, 0x61, 0x7b, 0x76,
  0x89, 0x91, 0x85, 0x8d, 0x80, 0x84, 0x94, 0x73, 0x7e, 0x7d, 0x7d, 0x7a,
  0x70, 0x79, 0x8a, 0x84, 0x9d, 0x9c, 0x90, 0x6c, 0x85, 0x84, 0x66, 0x93,
  0x8b, 0x6b, 0x89, 0x83, 0x98, 0x78, 0x93, 0x6d, 0x8c, 0x85, 0x86, 0x6f,
  0x66, 0x7a, 0x7f, 0x7e, 0x81, 0x7d, 0x83, 0x7c, 0x8c, 0x89, 0x7c, 0x90,
  0x90, 0x7d, 0x80, 0x8b, 0x75, 0x7b, 0x7e, 0x82, 0x96, 0x8b, 0x77, 0x7c,
  0x77, 0x9d, 0x91, 0x8a, 0x8f, 0x61, 0x85, 0x92, 0x84, 0x90, 0x6d, 0x71,
  0x66, 0x7d, 0x7c, 0x84, 0x84, 0x97, 0x7d, 0x80, 0x97, 0x86, 0x81, 0x7e,
  0x74, 0x53, 0xb9, 0x99, 0xc3, 0xb1, 0xa9, 0xa4, 0x4e, 0x86, 0x83, 0x46,
  0x80, 0x6c, 0xaf, 0x72, 0x7a, 0xac, 0x3b, 0x9c, 0x72, 0x5c, 0x81, 0x89,
  0xa7, 0x5d, 0xa9, 0x89, 0x87, 0x7e, 0x88, 0x78, 0xba, 0x49, 0x76, 0x75,
  0x78, 0x55, 0x4d, 0x70, 0x6f, 0x7b, 0x82, 0x86, 0x8a, 0xab, 0x68, 0x67,
  0x52, 0x64, 0x96, 0x72, 0x88, 0x87, 0x6d, 0x79, 0x99, 0x68, 0x88, 0x52,
  0x91, 0x5b, 0x8c, 0x79, 0x93, 0x84, 0x7d, 0x77, 0x86, 0x73, 0x6a, 0x87,
  0x76, 0x84, 0x72, 0x83, 0x89, 0x94, 0x7e, 0x7e, 0x9f, 0x76, 0x75, 0x71,
  0x78, 0x7a, 0x76, 0x82, 0x8e, 0x8b, 0x89, 0x87, 0x79, 0x79, 0x8a, 0x94,
  0x71, 0x76, 0x80, 0x95, 0x80, 0x7b, 0x6e, 0x76, 0x9c, 0x6d, 0x79, 0x8b,
  0x79, 0x76, 0x98, 0x96, 0x8f, 0x74, 0x9d, 0x66, 0x6f, 0x8d, 0x5c, 0x7c,
  0x86, 0x73, 0x66, 0x7a, 0x87, 0x88, 0x87, 0x7b, 0x75, 0x78, 0x6b, 0x72,
  0x92, 0x67, 0x85, 0x82, 0x86, 0x7d, 0x7c, 0x9d, 0x82, 0x70, 0x92, 0x8a,
  0x89, 0x75, 0x7e, 0x8e, 0x88, 0x82, 0x7c, 0x76, 0x80, 0x89, 0x8c, 0x79,
  0x7d, 0x92, 0x6f, 0x87, 0x6a, 0x59, 0xd2, 0xb8, 0xbc, 0xaf, 0xbe, 0xc4,
  0x6a, 0x90, 0x94, 0x4e, 0x72, 0x6e, 0x91, 0x80, 0x72, 0x9a, 0x49, 0x74,
  0x69, 0x6d, 0x7c, 0x9d, 0xa5, 0x62, 0xbd, 0xa4, 0x95, 0x7e, 0x84, 0x91,
  0xc1, 0x59, 0x69, 0x5b, 0x61, 0x62, 0x68, 0x6b, 0x8b, 0x6f, 0x84, 0x6a,
  0x99, 0x82, 0x53, 0x88, 0x5f, 0x6d, 0x6f, 0x82, 0x69, 0x94, 0x89, 0x7d,
  0xaf, 0x7d, 0x68, 0x4f, 0x89, 0x6b, 0x7e, 0x5f, 0x8a, 0x79, 0x78, 0x95,
  0x94, 0x8b, 0x78, 0x80, 0x73, 0x86, 0x7e, 0x89, 0x88, 0xa3, 0x7b, 0x82,
  0xa6, 0x6f, 0x85, 0x73, 0x88, 0x8d, 0x9e, 0x8b, 0x93, 0x72, 0x93, 0x8c,
  0x84, 0x6d, 0x77, 0x90, 0x88, 0x78, 0x7b, 0x75, 0x8c, 0x82, 0x88, 0x8b,
  0x92, 0x65, 0x6c, 0x8e, 0x7d, 0x86, 0x75, 0x71, 0x8a, 0x88, 0x95, 0x7a,
  0x90, 0x84, 0x82, 0x7a, 0x67, 0x7e, 0x8b, 0x7f, 0x9e, 0x8e, 0x70, 0x77,
  0x84, 0x78, 0x7c, 0x8d, 0x8a, 0x95, 0x80, 0x92, 0x7d, 0x7a, 0x87, 0x77,
  0x79, 0x79, 0x7e, 0x77, 0x9c, 0x7f, 0x92, 0x96, 0x77, 0xa6, 0x7d, 0x88,
  0x84, 0x87, 0x70, 0x82, 0x7c, 0x81, 0x81, 0x74, 0x68, 0x5e, 0xce, 0xbc,
  0xbc, 0xb8, 0x90, 0xc3, 0x74, 0x70, 0x95, 0x3a, 0x9d, 0x7f, 0x86, 0x71,
  0x98, 0xb5, 0x3d, 0x7e, 0x7a, 0x62, 0x73, 0x8f, 0xaa, 0x72, 0xa7, 0x92,
  0x72, 0x84, 0x80, 0x80, 0xb2, 0x6c, 0x77, 0x66, 0x8d, 0x61, 0x73, 0x8c,
  0x75, 0x81, 0x8b, 0x78, 0x96, 0x8f, 0x6b, 0x82, 0x6e, 0x74, 0x80, 0x79,
  0x6c, 0x7b, 0x71, 0x6b, 0xa6, 0x87, 0x93, 0x4b, 0x71, 0x84, 0x7e, 0x8d,
  0x9b, 0x7e, 0x7f, 0x89, 0x82, 0x6b, 0x6d, 0x8b, 0x88, 0x7e, 0x7d, 0x5e,
  0x86, 0x89, 0x7d, 0x84, 0xa0, 0x5c, 0x8e, 0x7c, 0x8b, 0x72, 0x9b, 0x7d,
  0x81, 0x6c, 0x7e, 0x8d, 0x71, 0x73, 0x63, 0x8d, 0x80, 0x74, 0x85, 0x81,
  0x8a, 0x65, 0x74, 0x78, 0x8c, 0x86, 0x9c, 0x8f, 0x6b, 0x77, 0x87, 0x8e,
  0x7a, 0x75, 0x8d, 0x85, 0x9d, 0x84, 0x88, 0x7e, 0x7e, 0x80, 0x89, 0x7a,
  0x95, 0x7b, 0x8c, 0x7c, 0x78, 0x6a, 0x7c, 0x81, 0x80, 0x86, 0x96, 0x73,
  0x7e, 0x7a, 0x91, 0x7e, 0x99, 0x55, 0x80, 0x8f, 0x77, 0x85, 0x81, 0x8b,
  0x73, 0x81, 0x65, 0x86, 0x85, 0x66, 0x7d, 0x8a, 0x73, 0x6b, 0x88, 0x72,
  0x66, 0x4e, 0xc6, 0xbd, 0xc9, 0xb2, 0xa4, 0xb9, 0x6b, 0x92, 0x99, 0x62,
  0x8b, 0x7b, 0x81, 0x8f, 0xa8, 0x8c, 0x59, 0x8e, 0x6b, 0x76, 0x89, 0x9d,
  0xbe, 0x64, 0xa6, 0x8a, 0x5e, 0x77, 0x67, 0x82, 0xb1, 0x67, 0x81, 0x75,
  0x7b, 0x70, 0x5c, 0x7a, 0x90, 0x6c, 0x8a, 0x82, 0x80, 0x8c, 0x6d, 0x90,
  0x76, 0x7d, 0x81, 0x7b, 0x7d, 0x8a, 0x85, 0x8b, 0xba, 0x63, 0x8f, 0x57,
  0x80, 0x62, 0x89, 0x85, 0x8e, 0x75, 0x8e, 0x9a, 0x81, 0x78, 0x79, 0x8a,
  0x64, 0x75, 0x74, 0x84, 0x93, 0xab, 0x82, 0x89, 0x79, 0x8e, 0x6e, 0x71,
  0x85, 0xa0, 0x84, 0x78, 0x9f, 0x7f, 0x7d, 0x8f, 0x79, 0x6b, 0x7d, 0x6b,
  0x8b, 0x86, 0x7c, 0x77, 0x78, 0x79, 0x8e, 0x76, 0x96, 0x8a, 0x8c, 0x86,
  0x98, 0x70, 0x7a, 0x74, 0x78, 0x8f, 0x6a, 0x7d, 0x82, 0x93, 0x8d, 0x8e,
  0x7f, 0x79, 0x7d, 0x95, 0x80, 0x89, 0x89, 0x7e, 0x7f, 0x7b, 0x7a, 0x73,
  0x8d, 0x76, 0x81, 0x9a, 0x92, 0x94, 0x7f, 0x8b, 0x85, 0x68, 0x7d, 0x7d,
  0x77, 0x68, 0x8b, 0x88, 0x72, 0x80, 0x7a, 0x85, 0x80, 0x7a, 0x80, 0x70,
  0x69, 0x88, 0x98, 0x65, 0x70, 0x68, 0xbb, 0xca, 0xb4, 0xb4, 0x99, 0x93,
  0x80, 0x9a, 0x7e, 0x66, 0x70, 0x82, 0x8f, 0x76, 0x84, 0xa8, 0x4f, 0xb2,
  0x78, 0x74, 0x70, 0xa0, 0xba, 0x73, 0x9b, 0x95, 0x8b, 0xa1, 0x88, 0x91,
  0xa4, 0x75, 0x6f, 0x8b, 0x98, 0x7f, 0x6b, 0x7a, 0x8a, 0x7c, 0x6b, 0x9c,
  0x8a, 0x8e, 0x68, 0x7c, 0x77, 0x6a, 0x78, 0x94, 0x63, 0xa2, 0x7f, 0x6b,
  0x94, 0x7a, 0x7d, 0x51, 0x72, 0x78, 0xa8, 0x77, 0xad, 0x6c, 0x76, 0x99,
  0xa8, 0x77, 0x70, 0x8a, 0x78, 0x69, 0x7e, 0x5e, 0x76, 0xa9, 0x85, 0xa5,
  0x78, 0x82, 0x86, 0x63, 0x94, 0x75, 0x7e, 0x89, 0x82, 0x75, 0x7f, 0x8a,
  0x89, 0x69, 0x8d, 0x74, 0x83, 0x8b, 0x75, 0x88, 0x70, 0x6e, 0x82, 0x7d,
  0x8e, 0x79, 0x87, 0x81, 0x80, 0x7d, 0x87, 0x95, 0x9d, 0x7c, 0x89, 0x8b,
  0x7b, 0x86, 0x85, 0x80, 0x78, 0x74, 0x87, 0x83, 0x81, 0x8f, 0x83, 0x79,
  0x72, 0x6d, 0x89, 0x86, 0x8d, 0x86, 0x73, 0x7b, 0x87, 0x7d, 0x7a, 0x8e,
  0x7d, 0x6d, 0x89, 0x76, 0x7c, 0x75, 0x8e, 0x8a, 0x83, 0x94, 0x71, 0x80,
  0x93, 0x7b, 0x68, 0x8a, 0x77, 0x87, 0x75, 0x82, 0x5a, 0x21, 0xc5, 0xdc,
  0xb9, 0xb6, 0xab, 0xa9, 0x5f, 0x96, 0x88, 0x94, 0x64, 0x71, 0x99, 0x7b,
  0x89, 0xaa, 0x3c, 0x97, 0x67, 0x7f, 0x8d, 0x91, 0xbd, 0x60, 0x7c, 0x8b,
  0x63, 0x61, 0x91, 0x7b, 0xb0, 0x80, 0x5c, 0x65, 0x61, 0x73, 0x63, 0x64,
  0x8c, 0x94, 0xa2, 0x8b, 0x7f, 0x8a, 0x4f, 0x80, 0x76, 0x58, 0x7b, 0x8c,
  0x7a, 0x8e, 0x79, 0x84, 0x97, 0x71, 0x72, 0x65, 0x89, 0x81, 0x95, 0x70,
  0x8d, 0x80, 0x80, 0x9c, 0x91, 0x60, 0x73, 0x7a, 0x72, 0x72, 0x85, 0x75,
  0x7e, 0xa3, 0x7c, 0x8d, 0x7d, 0x7f, 0x7d, 0x82, 0x8e, 0x80, 0x8b, 0x81,
  0x85, 0x76, 0x7d, 0x8d, 0x78, 0x84, 0x7f, 0x7a, 0xa4, 0x70, 0x8a, 0x6b,
  0x91, 0x7d, 0x84, 0x86, 0x80, 0x8f, 0x75, 0x8a, 0x9b, 0x77, 0x87, 0x8e,
  0x87, 0x83, 0x7b, 0x6d, 0x86, 0x99, 0x80, 0x7c, 0x77, 0x70, 0x85, 0x8e,
  0x82, 0x8a, 0x66, 0x7b, 0x86, 0x8b, 0x89, 0x8d, 0x98, 0x8b, 0x72, 0x8e,
  0x98, 0x85, 0x78, 0x76, 0x7d, 0x8c, 0x7c, 0x8e, 0x71, 0x6c, 0x67, 0x90,
  0x7b, 0x7e, 0x89, 0x84, 0x93, 0x74, 0x7f, 0x75, 0x79, 0x89, 0x90, 0x7d,
  0x91, 0x50, 0xa6, 0xd7, 0xd4, 0xba, 0x9d, 0xa1, 0x74, 0x79, 0x65, 0x60,
  0x3b, 0x96, 0x89, 0x88, 0x7a, 0x84, 0x5b, 0x8e, 0x73, 0x88, 0x93, 0xa3,
  0xb3, 0x64, 0x91, 0xa1, 0x5b, 0x88, 0x74, 0x70, 0xb5, 0x7b, 0x70, 0x78,
  0x69, 0x56, 0x74, 0x65, 0x75, 0x8d, 0x6c, 0x8e, 0x82, 0x87, 0x4c, 0x6a,
  0x66, 0x6e, 0x90, 0xa5, 0x70, 0x8c, 0x6e, 0x86, 0x8a, 0x7c, 0x7a, 0x52,
  0x83, 0x6d, 0xa3, 0x6b, 0x97, 0x89, 0xa3, 0x81, 0x7c, 0x5f, 0x75, 0x81,
  0x7e, 0x5e, 0x7d, 0x81, 0xb5, 0xa1, 0x8c, 0x87, 0x93, 0x90, 0x85, 0x76,
  0x86, 0x8f, 0x7f, 0x88, 0x78, 0x7f, 0x89, 0x93, 0x87, 0x6f, 0x5e, 0x6a,
  0x9a, 0x72, 0x8c, 0x80, 0x7c, 0x74, 0x72, 0x76, 0x8f, 0x82, 0x81, 0x97,
  0x72, 0x79, 0x8d, 0x70, 0x7f, 0x75, 0x92, 0x7b, 0x79, 0x7d, 0x76, 0x81,
  0x86, 0x73, 0x80, 0x75, 0x76, 0x7c, 0x7b, 0x61, 0x71, 0x93, 0x8d, 0x8c,
  0x75, 0x71, 0x95, 0x84, 0x85, 0x66, 0x90, 0x7b, 0x8b, 0x87, 0x74, 0x8e,
  0x6a, 0x7d, 0x77, 0x8f, 0x82, 0x9e, 0x6f, 0x72, 0x86, 0x80, 0x79, 0x7c,
  0x89, 0x79, 0x8f, 0x81, 0x75, 0x5d, 0x99, 0xd9, 0xc3, 0xcc, 0xa9, 0xca,
  0x76, 0x7e, 0x61, 0x92, 0x44, 0x83, 0x8f, 0x6e, 0xab, 0xa1, 0x5f, 0x79,
  0x64, 0x86, 0x64, 0x86, 0x99, 0x41, 0x9c, 0xa7, 0x66, 0x78, 0x3c, 0x77,
  0xa2, 0x6b, 0x70, 0x6d, 0x81, 0x79, 0x66, 0x89, 0x69, 0x93, 0x91, 0x78,
  0x77, 0x8e, 0x4f, 0x69, 0x83, 0x72, 0x7d, 0x92, 0x7d, 0x9f, 0x6e, 0x6d,
  0x87, 0x84, 0x71, 0x64, 0x67, 0x71, 0x7f, 0x8a, 0x95, 0x7c, 0x7a, 0x91,
  0x93, 0x6d, 0x68, 0x5e, 0x83, 0x77, 0x99, 0x88, 0x96, 0x92, 0x73, 0x96,
  0x82, 0x6d, 0x95, 0x99, 0x8a, 0x90, 0x95, 0x8e, 0x8b, 0x94, 0x96, 0x71,
  0xa2, 0x6e, 0x81, 0x72, 0xa2, 0x77, 0x89, 0x84, 0x71, 0x83, 0x80, 0x86,
  0x70, 0x7a, 0x65, 0x9f, 0x84, 0x77, 0x83, 0x72, 0x7a, 0x85, 0x89, 0x74,
  0x7d, 0x86, 0x86, 0x72, 0x7a, 0x80, 0x8f, 0x8e, 0x72, 0x84, 0x86, 0x70,
  0x78, 0x82, 0x7e, 0x89, 0xa0, 0x9c, 0x89, 0x69, 0x7c, 0x90, 0x99, 0x88,
  0x7f, 0x70, 0x69, 0x74, 0x80, 0x71, 0x6d, 0x88, 0x6c, 0x74, 0x7c, 0x6e,
  0x70, 0x79, 0x88, 0x87, 0x6c, 0x95, 0x87, 0x88, 0x7e, 0x48, 0xb5, 0xc2,
  0xd3, 0xb7, 0xad, 0xbc, 0x8f, 0x7a, 0x64, 0x9d, 0x4a, 0x86, 0x95, 0x67,
  0xa3, 0x89, 0x37, 0x8f, 0x7c, 0x85, 0x7b, 0x7a, 0x93, 0x63, 0x80, 0x93,
  0x71, 0x73, 0x46, 0x7d, 0xa0, 0x67, 0x80, 0x61, 0x6c, 0x5e, 0x69, 0x7c,
  0x71, 0x85, 0x72, 0x65, 0x83, 0x6b, 0x4a, 0x8a, 0x76, 0x7d, 0x82, 0x9c,
  0x68, 0x81, 0x7e, 0x70, 0x80, 0x7e, 0x92, 0x7f, 0x75, 0x69, 0x93, 0x8a,
  0xa8, 0x5f, 0x94, 0x81, 0x8d, 0x5e, 0x84, 0x71, 0x61, 0x68, 0x87, 0x7c,
  0x90, 0xaa, 0x8c, 0x82, 0x82, 0x8e, 0x96, 0x8d, 0x94, 0x7c, 0x86, 0x92,
  0x93, 0x7d, 0x8a, 0x7f, 0x7c, 0x86, 0x6d, 0x83, 0x9a, 0x77, 0x83, 0x6e,
  0x66, 0x72, 0x7c, 0x96, 0x88, 0x6f, 0x7e, 0x8b, 0x71, 0x6e, 0x6f, 0x7b,
  0x67, 0x83, 0x71, 0x74, 0x74, 0x82, 0x86, 0x77, 0x8c, 0x76, 0x9a, 0x7f,
  0x7f, 0x70, 0x7b, 0x80, 0x86, 0x71, 0x7a, 0x7f, 0x95, 0x76, 0x74, 0x8c,
  0x85, 0x77, 0x93, 0x7a, 0x91, 0x6e, 0x8a, 0x77, 0x72, 0x84, 0x7e, 0x71,
  0x80, 0x84, 0x7a, 0x98, 0x84, 0x7c, 0x6b, 0x84, 0x8d, 0x7b, 0x7b, 0x89,
  0x89, 0x47, 0x8b, 0x9c, 0xb8, 0x8b, 0x87, 0xb9, 0x88, 0x81, 0x8a, 0xbc,
  0x4f, 0x91, 0x86, 0x8c, 0x88, 0x78, 0x56, 0x88, 0x65, 0x88, 0x78, 0x8a,
  0xad, 0x6a, 0x86, 0x93, 0x4c, 0x73, 0x49, 0x73, 0x8c, 0x68, 0x77, 0x70,
  0x7b, 0x77, 0x6b, 0x6c, 0x8e, 0x8d, 0x78, 0x96, 0x88, 0x7f, 0x63, 0x90,
  0x7a, 0x5d, 0x7e, 0x95, 0x63, 0x8f, 0x85, 0x85, 0x8a, 0x74, 0x81, 0x6e,
  0x69, 0x67, 0x7e, 0x7d, 0x9b, 0x7c, 0x75, 0x6b, 0x7e, 0x75, 0x71, 0x87,
  0x73, 0x65, 0x80, 0x73, 0x97, 0x88, 0x7f, 0x6b, 0x7f, 0x74, 0x85, 0x77,
  0x8b, 0x7b, 0x86, 0x70, 0x71, 0x74, 0x79, 0x76, 0x98, 0x6e, 0x81, 0x80,
  0x8c, 0x73, 0x70, 0x84, 0x74, 0x75, 0x77, 0x79, 0x92, 0x6e, 0x87, 0x81,
  0x73, 0x73, 0x67, 0x6c, 0x7b, 0x76, 0x75, 0x88, 0x79, 0x77, 0x6f, 0x8f,
  0x8b, 0x6d, 0x7c, 0x85, 0x67, 0x78, 0x81, 0x84, 0x89, 0x82, 0x8b, 0x6d,
  0x7f, 0x7c, 0x7c, 0x96, 0x78, 0x93, 0x8f, 0x81, 0x7c, 0x6c, 0x7f, 0x86,
  0x83, 0x81, 0x8f, 0x7a, 0x74, 0x7e, 0x85, 0x82, 0x81, 0x5f, 0x77, 0x88,
  0x8a, 0x6d, 0x8b, 0x89, 0x86, 0x56, 0x91, 0x74, 0xaf, 0x81, 0xa4, 0x86,
  0x83, 0x78, 0x71, 0xae, 0x5b, 0x8d, 0x65, 0x9b, 0x9f, 0x70, 0x78, 0x98,
  0x50, 0x8f, 0x9c, 0x73, 0x82, 0x67, 0x8f, 0x8e, 0x66, 0x61, 0x56, 0x6b,
  0x8d, 0x58, 0x76, 0x7e, 0x6f, 0x63, 0x6d, 0x72, 0x88, 0x8e, 0x87, 0x89,
  0x88, 0x85, 0x53, 0x88, 0x84, 0x87, 0x63, 0x87, 0x75, 0x8a, 0x85, 0x8f,
  0x90, 0x68, 0x8f, 0x69, 0x7c, 0x7b, 0x93, 0x7e, 0x91, 0x72, 0x86, 0x82,
  0x7d, 0x88, 0x77, 0x87, 0x6d, 0x86, 0x87, 0x84, 0x99, 0x9c, 0x79, 0x89,
  0x7e, 0x9a, 0x77, 0x88, 0x90, 0x78, 0x88, 0x92, 0x8e, 0x7e, 0x89, 0x7e,
  0x97, 0x7e, 0x76, 0x96, 0x75, 0x75, 0x85, 0x86, 0x8f, 0x80, 0x86, 0x82,
  0x93, 0x76, 0x87, 0x88, 0x96, 0x79, 0x84, 0x77, 0x99, 0x76, 0x7e, 0x73,
  0x97, 0x70, 0x88, 0x8e, 0x75, 0x84, 0x7d, 0x80, 0x8b, 0x6d, 0x6f, 0x8b,
  0x7b, 0x7c, 0x71, 0x8c, 0x8f, 0x87, 0x88, 0x74, 0x87, 0x81, 0x8b, 0x81,
  0x7c, 0x81, 0x7a, 0x84, 0x7d, 0x79, 0x7e, 0x70, 0x95, 0x7f, 0x86, 0x6a,
  0x76, 0x82, 0x78, 0x75, 0x74, 0x7d, 0x82, 0x67, 0x70, 0x70, 0x89, 0x85,
  0x8b, 0x84, 0x8d, 0x60, 0x64, 0x94, 0x68, 0x73, 0x72, 0x79, 0x6e, 0x7d,
  0x9d, 0x79, 0x7d, 0x9b, 0x57, 0xa9, 0x73, 0x63, 0x57, 0x83, 0x6d, 0x97,
  0x73, 0x9d, 0x4a, 0x66, 0x75, 0x88, 0x82, 0x90, 0x7f, 0x81, 0x94, 0x87,
  0x81, 0x70, 0x71, 0x8d, 0x8e, 0x65, 0x7a, 0x8e, 0x96, 0x8d, 0x77, 0x8c,
  0x83, 0x86, 0x65, 0x7a, 0x7d, 0x77, 0x7d, 0x80, 0x7d, 0x5e, 0x8f, 0x92,
  0x87, 0x87, 0x8a, 0x94, 0x8a, 0x73, 0x53, 0x79, 0x80, 0x78, 0x7e, 0x6f,
  0x98, 0x91, 0x88, 0x6a, 0x8e, 0x78, 0x93, 0x8e, 0x6c, 0x8f, 0x8e, 0x7f,
  0x76, 0x7b, 0x69, 0x73, 0x74, 0x84, 0x82, 0x81, 0x7c, 0x70, 0x7f, 0x7e,
  0x71, 0x8b, 0x77, 0x71, 0x77, 0x6b, 0x84, 0x99, 0x90, 0x96, 0x91, 0x84,
  0x8b, 0x8b, 0x81, 0x7f, 0x7a, 0x76, 0x82, 0x7c, 0x73, 0x80, 0x85, 0x85,
  0x73, 0x73, 0x68, 0x72, 0x83, 0x72, 0x83, 0x7a, 0x71, 0x81, 0x6d, 0x7e,
  0x7d, 0x83, 0x95, 0x8b, 0x8b, 0x84, 0x8b, 0x70, 0x6c, 0x7e, 0x87, 0x84,
  0x91, 0x89, 0x70, 0x79, 0x80, 0x76, 0x7f, 0x6d, 0x92, 0x68, 0x85, 0x73,
  0x5b, 0x59, 0x8a, 0xd4, 0x7d, 0x80, 0xb0, 0xa4, 0x71, 0x73, 0x94, 0x79,
  0x7b, 0x74, 0x8e, 0x91, 0xca, 0x96, 0x52, 0x75, 0x6d, 0x78, 0x6f, 0x69,
  0x9f, 0x7a, 0x8a, 0x6e, 0x89, 0x87, 0x82, 0x7c, 0xa8, 0x76, 0x8e, 0x72,
  0x9c, 0x83, 0x59, 0x76, 0x80, 0x75, 0x77, 0x87, 0x85, 0x82, 0x7e, 0x6c,
  0x76, 0x7d, 0x88, 0x7d, 0x57, 0x87, 0xa1, 0x8c, 0x90, 0x98, 0x73, 0x85,
  0x8d, 0x7b, 0x9d, 0x72, 0x8e, 0x89, 0x96, 0x85, 0x77, 0x94, 0x8c, 0x74,
  0x94, 0x82, 0x89, 0x80, 0x88, 0x99, 0x8b, 0xa0, 0x5b, 0x8a, 0x81, 0x6e,
  0x7d, 0x8d, 0x9c, 0x88, 0x67, 0x7b, 0x82, 0x6f, 0x96, 0x98, 0x67, 0x64,
  0x87, 0x99, 0x85, 0x75, 0x80, 0x76, 0x8f, 0x88, 0x73, 0x81, 0x7f, 0x70,
  0x75, 0x78, 0x88, 0x75, 0x6e, 0x7e, 0x73, 0x86, 0x87, 0x7a, 0x7f, 0x79,
  0x84, 0x6c, 0x7f, 0x8a, 0x7b, 0x8f, 0x68, 0x6a, 0x82, 0x8f, 0x86, 0x8d,
  0x77, 0x73, 0x7e, 0x6d, 0x85, 0x79, 0x85, 0x77, 0x7e, 0x80, 0x84, 0x8f,
  0x92, 0x6c, 0x88, 0x70, 0x77, 0x72, 0x72, 0x8a, 0x67, 0x6b, 0x68, 0x6f,
  0x71, 0x70, 0x75, 0x88, 0x73, 0x2e, 0x8f, 0xbf, 0xa9, 0xa6, 0x7c, 0x9d,
  0x68, 0x56, 0x92, 0x58, 0x86, 0x7e, 0x77, 0x7c, 0xaf, 0x7a, 0x83, 0x72,
  0x7e, 0x50, 0x73, 0x5d, 0xa6, 0x9b, 0x90, 0x6e, 0x81, 0xb1, 0xa2, 0x8b,
  0x7c, 0x88, 0xa6, 0x57, 0x77, 0x85, 0x7c, 0x70, 0x73, 0x85, 0x75, 0x89,
  0x7a, 0x82, 0x70, 0x8c, 0x9e, 0x8d, 0x8d, 0x75, 0x79, 0x94, 0x9a, 0x77,
  0x87, 0x7f, 0x64, 0x76, 0x78, 0x84, 0x8c, 0x89, 0x76, 0x7b, 0x89, 0x77,
  0x85, 0x8a, 0x91, 0x7f, 0x72, 0x83, 0x86, 0x71, 0x80, 0x8e, 0x75, 0x93,
  0x7c, 0x7d, 0x95, 0x7f, 0x75, 0x81, 0x7f, 0x76, 0x80, 0x74, 0x8f, 0x76,
  0x85, 0x7b, 0x70, 0x84, 0x6e, 0x8d, 0x64, 0x77, 0x71, 0x78, 0x78, 0x79,
  0x6f, 0x95, 0x8b, 0x6e, 0x8a, 0x85, 0x82, 0x7c, 0x6a, 0x8f, 0x67, 0x93,
  0x7c, 0x9c, 0x80, 0x85, 0x68, 0x83, 0x72, 0x71, 0x87, 0x7e, 0x98, 0x79,
  0x8e, 0x91, 0x63, 0x6f, 0x7f, 0x88, 0x7e, 0x66, 0x88, 0x6f, 0x77, 0x63,
  0x65, 0x8a, 0x88, 0x84, 0x98, 0x81, 0x7c, 0x97, 0x89, 0x91, 0x8d, 0x92,
  0x67, 0x86, 0x7f, 0x8f, 0x85, 0x77, 0x8f, 0x90, 0x55, 0x52, 0x8a, 0xe0,
  0xa0, 0x90, 0x52, 0x7b, 0x6b, 0x49, 0x99, 0xa7, 0x58, 0x8b, 0x5c, 0x73,
  0xb6, 0x8f, 0x86, 0xc6, 0x85, 0x56, 0x79, 0x64, 0xae, 0x80, 0xb8, 0x6c,
  0x6f, 0xb7, 0xa0, 0x70, 0x73, 0x7d, 0x96, 0x81, 0x8e, 0x6b, 0x54, 0x76,
  0x5f, 0xa0, 0x88, 0x90, 0x7e, 0x74, 0x76, 0x79, 0x8c, 0x86, 0x8c, 0x8d,
  0x78, 0x8c, 0x9c, 0x83, 0x8c, 0x8a, 0x7b, 0x78, 0x90, 0x74, 0x96, 0x81,
  0x85, 0x90, 0x99, 0x8b, 0x7a, 0x7f, 0x6a, 0x75, 0x86, 0x6f, 0x79, 0x83,
  0x84, 0x7d, 0x70, 0x72, 0x76, 0x6b, 0x8f, 0x72, 0x6e, 0x76, 0x7e, 0x7b,
  0x76, 0x8d, 0x84, 0x8d, 0x78, 0x8a, 0x89, 0x7e, 0x6d, 0x92, 0x89, 0x6e,
  0x7f, 0x82, 0x75, 0x6d, 0x69, 0x7a, 0x89, 0x81, 0x94, 0x90, 0x76, 0x7b,
  0x90, 0x7e, 0x8b, 0x85, 0x77, 0x81, 0x71, 0x7d, 0x80, 0x69, 0x6f, 0x7c,
  0x72, 0x80, 0x79, 0x77, 0x73, 0x86, 0x90, 0x82, 0x71, 0x83, 0x6f, 0x80,
  0x94, 0x7a, 0x75, 0x70, 0x65, 0x88, 0x87, 0x66, 0x6d, 0x8f, 0x87, 0x7a,
  0x86, 0x81, 0x78, 0x84, 0x7e, 0x82, 0x96, 0x85, 0x7c, 0x70, 0x73, 0x6b,
  0x81, 0x41, 0xab, 0xc2, 0x99, 0x80, 0x71, 0x8e, 0x95, 0x70, 0x9d, 0x8b,
  0x70, 0xa8, 0x50, 0x88, 0x92, 0x72, 0x9f, 0xb2, 0x65, 0x56, 0x57, 0x67,
  0x95, 0x8b, 0xa6, 0x75, 0x6f, 0xa5, 0xa3, 0x83, 0x8a, 0x7b, 0x92, 0x7b,
  0x7b, 0x6f, 0x5b, 0x89, 0x7a, 0x79, 0x88, 0x7f, 0x82, 0x87, 0x67, 0x96,
  0x9a, 0x78, 0x7c, 0x9f, 0x86, 0x82, 0x78, 0x87, 0x98, 0x76, 0x71, 0x6c,
  0x8b, 0x64, 0x97, 0x74, 0x84, 0x89, 0xaa, 0x83, 0x85, 0x8d, 0x7a, 0x5e,
  0x95, 0x75, 0x7c, 0x96, 0x94, 0x92, 0x62, 0x7b, 0x7f, 0x74, 0x8d, 0x83,
  0x85, 0x9b, 0x86, 0x7b, 0x8a, 0x73, 0x8c, 0x7e, 0x98, 0x7c, 0x7c, 0x64,
  0x6f, 0x7e, 0x91, 0x6c, 0x6f, 0x7f, 0x76, 0x85, 0x7d, 0x91, 0x89, 0x89,
  0x8c, 0x80, 0x7c, 0x74, 0x64, 0x83, 0x7e, 0x73, 0x81, 0x97, 0x79, 0x6e,
  0x67, 0x6f, 0x82, 0x8f, 0x8c, 0x90, 0x7a, 0x81, 0x76, 0x6f, 0x75, 0x7b,
  0x70, 0x8f, 0x90, 0x7a, 0x9b, 0x74, 0x8c, 0x8b, 0x75, 0x8b, 0x94, 0x89,
  0x91, 0x6f, 0x89, 0x70, 0x83, 0x86, 0x80, 0x83, 0x6b, 0x7c, 0x83, 0x8e,
  0x8e, 0x9c, 0x8f, 0x74, 0x6b, 0x40, 0x98, 0xbf, 0xa9, 0x72, 0x7f, 0x85,
  0xa2, 0x62, 0x89, 0x6f, 0x7b, 0xb0, 0x84, 0x86, 0xae, 0x93, 0x97, 0xca,
  0x72, 0x78, 0x63, 0x68, 0x8e, 0x61, 0xbe, 0x65, 0x71, 0xaa, 0xa2, 0x5e,
  0x87, 0x8f, 0x89, 0x77, 0x71, 0x91, 0x4d, 0x82, 0x85, 0x88, 0x90, 0x89,
  0x7f, 0x81, 0x6d, 0x8b, 0x92, 0x87, 0x6d, 0x8b, 0x8f, 0x8a, 0x7a, 0x7e,
  0x7f, 0x7b, 0x7a, 0x8f, 0x81, 0x7a, 0xa8, 0x65, 0x7f, 0x77, 0x83, 0x93,
  0x71, 0x7f, 0x83, 0x73, 0x7d, 0x8a, 0x71, 0x88, 0x8d, 0x81, 0x79, 0x8e,
  0x7b, 0x98, 0x89, 0x75, 0x7b, 0x9e, 0x8a, 0x6e, 0x6f, 0x7c, 0x7e, 0x7e,
  0x82, 0x7a, 0x91, 0x72, 0x7d, 0x79, 0x8f, 0x8b, 0x8d, 0x6b, 0x6f, 0x8d,
  0x85, 0x7f, 0x91, 0x7d, 0x9f, 0x68, 0x7e, 0x80, 0x70, 0x7f, 0x85, 0x7c,
  0x7a, 0x81, 0x8b, 0x7c, 0x74, 0x7d, 0x76, 0x68, 0x81, 0x8e, 0x87, 0x6c,
  0x74, 0x86, 0x6b, 0x89, 0x7d, 0x6b, 0x73, 0x96, 0x7b, 0x76, 0x69, 0x66,
  0x71, 0x81, 0x77, 0x7e, 0x8c, 0x80, 0x7b, 0x78, 0x79, 0x86, 0x8b, 0x77,
  0x7a, 0x66, 0x83, 0x61, 0x5f, 0x84, 0x89, 0x65, 0x6d, 0x46, 0x7f, 0xc7,
  0x7f, 0x6a, 0x90, 0x83, 0xa7, 0x67, 0xaa, 0x88, 0x79, 0x95, 0x73, 0x8b,
  0x9f, 0x80, 0xc8, 0xbb, 0x86, 0x55, 0x52, 0x64, 0x7d, 0x56, 0x8a, 0x5b,
  0x79, 0xc3, 0x91, 0x76, 0x82, 0x89, 0x89, 0x82, 0x99, 0x78, 0x67, 0x72,
  0x81, 0x7b, 0x84, 0x79, 0x89, 0x71, 0x75, 0x70, 0x95, 0x86, 0x85, 0x8f,
  0x70, 0x6c, 0x73, 0x83, 0x93, 0x9c, 0x78, 0x81, 0x77, 0x7b, 0x9a, 0x83,
  0x89, 0x6d, 0x86, 0x93, 0x7f, 0x95, 0x74, 0x7b, 0x76, 0x7a, 0x7e, 0x84,
  0x81, 0x86, 0x6f, 0x90, 0x9d, 0x85, 0x82, 0x8e, 0x61, 0x99, 0x94, 0x84,
  0x74, 0x75, 0x8d, 0x80, 0x8f, 0x7a, 0x8d, 0x84, 0x72, 0x77, 0x86, 0x79,
  0x5f, 0x9b, 0x7d, 0x80, 0x6f, 0x94, 0x7c, 0x8c, 0x95, 0x7b, 0x66, 0x84,
  0x79, 0x91, 0x89, 0x75, 0x9b, 0x71, 0x73, 0x83, 0x91, 0x8c, 0x81, 0x6c,
  0x8a, 0x99, 0x75, 0x98, 0x71, 0x78, 0x7a, 0x80, 0x7a, 0x7f, 0x76, 0x89,
  0x75, 0x71, 0x77, 0x6d, 0x6e, 0x57, 0x6e, 0x8a, 0x88, 0x70, 0x84, 0x71,
  0x7f, 0x7b, 0x84, 0x85, 0x87, 0x72, 0x83, 0x8b, 0x81, 0x91, 0x81, 0x78,
  0x79, 0x74, 0x76, 0x95, 0x7b, 0x7f, 0x7c, 0x67, 0xa9, 0x58, 0x9e, 0x64,
  0x4e, 0xa4, 0x82, 0x85, 0x9c, 0x7a, 0xdb, 0xdd, 0x71, 0x5d, 0x62, 0x5e,
  0x6c, 0x78, 0x93, 0x56, 0x79, 0xa1, 0xa2, 0x6f, 0x7a, 0x88, 0x8d, 0x83,
  0x82, 0x77, 0x6c, 0x63, 0x6e, 0x80, 0x81, 0x7e, 0x6b, 0x81, 0x76, 0x90,
  0x84, 0x7e, 0x6d, 0x8c, 0x7a, 0x76, 0x82, 0x83, 0x77, 0x9b, 0x71, 0x8b,
  0x7f, 0x8f, 0x6f, 0x81, 0x85, 0x87, 0x7b, 0x8f, 0x64, 0x82, 0x91, 0x8c,
  0x8d, 0x83, 0x90, 0x83, 0x79, 0x67, 0x7b, 0x7d, 0x79, 0x8b, 0x8a, 0x71,
  0x7d, 0x8f, 0x72, 0x6b, 0x78, 0x81, 0x72, 0x82, 0x84, 0x76, 0x84, 0x78,
  0x6b, 0x8f, 0x97, 0x6e, 0x72, 0x95, 0x74, 0x75, 0x87, 0x68, 0x7e, 0x64,
  0x84, 0x82, 0x7b, 0x71, 0x69, 0x8a, 0x81, 0x72, 0x84, 0x79, 0x66, 0x76,
  0x7b, 0x79, 0x86, 0x8c, 0x6e, 0x99, 0x8e, 0x7a, 0x6f, 0x74, 0x70, 0x8f,
  0x86, 0x79, 0x84, 0x6b, 0x80, 0x83, 0x85, 0x81, 0x6a, 0x66, 0x8c, 0x6b,
  0x73, 0x8f, 0x84, 0x72, 0x78, 0x80, 0x80, 0x8d, 0x7f, 0x85, 0x8e, 0x93,
  0x79, 0x72, 0x89, 0x72, 0x84, 0x61, 0x80, 0xc2, 0x81, 0x97, 0x69, 0x62,
  0xc1, 0x66, 0xa2, 0x5f, 0x8b, 0xbc, 0x7a, 0x96, 0x83, 0x64, 0xdf, 0xd5,
  0x94, 0x4f, 0x2d, 0x7c, 0x4e, 0x50, 0x8d, 0x65, 0x5c, 0x9d, 0xa2, 0x6d,
  0x79, 0x82, 0x98, 0x7a, 0x83, 0x5f, 0x68, 0x83, 0x7f, 0x78, 0x7a, 0x6c,
  0x6c, 0x77, 0x7b, 0x74, 0x85, 0x6d, 0x6f, 0xa0, 0x6c, 0x80, 0x8a, 0x7f,
  0x7b, 0x8f, 0x8a, 0x96, 0x63, 0x6e, 0x77, 0x76, 0x89, 0x76, 0x73, 0x8b,
  0x92, 0x97, 0x8e, 0x73, 0x91, 0x90, 0x8c, 0x7e, 0x90, 0x71, 0x84, 0x6b,
  0x7c, 0x74, 0x6f, 0x7c, 0x5c, 0x90, 0x86, 0x63, 0x6d, 0x8d, 0x84, 0x85,
  0x77, 0x7a, 0x86, 0x70, 0x5c, 0x64, 0x75, 0x8a, 0x88, 0x93, 0x76, 0x81,
  0x74, 0x86, 0x7d, 0x7e, 0x75, 0x7d, 0x65, 0x6c, 0x85, 0x95, 0x70, 0x79,
  0x89, 0x89, 0x79, 0x90, 0x73, 0x78, 0x6a, 0x85, 0x72, 0x7a, 0x70, 0x97,
  0x84, 0x80, 0x79, 0x7d, 0x6f, 0x5e, 0x7b, 0x86, 0x92, 0x74, 0x74, 0x8a,
  0x80, 0x59, 0x6e, 0x81, 0x6f, 0x7b, 0x88, 0x69, 0x66, 0x71, 0x80, 0x97,
  0x88, 0x7c, 0x8e, 0x85, 0x6f, 0x8c, 0x77, 0x87, 0x8b, 0x4c, 0x6d, 0x93,
  0x7e, 0x70, 0x62, 0x6c, 0x9e, 0x6e, 0xae, 0x6d, 0x5c, 0xb0, 0x7b, 0x90,
  0xae, 0x73, 0xcc, 0x9e, 0x77, 0x56, 0x3c, 0x7b, 0x6d, 0x52, 0xac, 0x57,
  0x4a, 0x9d, 0xae, 0x50, 0x84, 0x8e, 0x7f, 0x8f, 0x97, 0x7a, 0x65, 0x82,
  0x89, 0x81, 0x80, 0x6e, 0x80, 0x6f, 0x86, 0x7e, 0x8c, 0x71, 0x5e, 0x8d,
  0x6b, 0x63, 0x7a, 0x8b, 0x9b, 0x76, 0x5e, 0x95, 0x95, 0x7d, 0x8b, 0x82,
  0x8e, 0x82, 0x6c, 0x89, 0x88, 0xa7, 0x93, 0x89, 0x89, 0x85, 0x76, 0x82,
  0x6f, 0x99, 0x79, 0x7c, 0x6b, 0x86, 0x81, 0x8b, 0x6e, 0x79, 0x8c, 0x77,
  0x9b, 0x6c, 0x74, 0x81, 0x86, 0x7a, 0x81, 0x87, 0x72, 0x82, 0x87, 0x6a,
  0x7a, 0x86, 0x73, 0x7c, 0x76, 0x7f, 0x65, 0x83, 0x71, 0x78, 0x5d, 0x84,
  0x89, 0x83, 0x8b, 0x81, 0x87, 0x7f, 0x5f, 0x76, 0x5c, 0x73, 0x73, 0x70,
  0x88, 0x80, 0x60, 0x6d, 0x72, 0x7b, 0x88, 0x6f, 0x82, 0x88, 0x85, 0x5e,
  0x82, 0x85, 0x61, 0x75, 0x76, 0x5f, 0x82, 0x6b, 0x75, 0x89, 0x73, 0x7e,
  0x73, 0x88, 0x7b, 0x64, 0x70, 0x73, 0x83, 0x5f, 0x78, 0x81, 0x7f, 0x6f,
  0x6e, 0x5d, 0x84, 0xa9, 0x89, 0x83, 0x72, 0x48, 0xa4, 0x6f, 0x98, 0x64,
  0x87, 0xae, 0x99, 0x93, 0x83, 0x7a, 0xed, 0xa4, 0x81, 0x79, 0x16, 0x62,
  0x70, 0x68, 0x9b, 0x36, 0x83, 0x89, 0x95, 0x6b, 0x88, 0x7a, 0x94, 0x64,
  0x8d, 0x7a, 0x75, 0x71, 0x6c, 0x72, 0x8f, 0x6d, 0x86, 0x80, 0x9f, 0x7f,
  0x8c, 0x7d, 0x6a, 0x94, 0x84, 0x56, 0x72, 0x83, 0x61, 0x9e, 0x79, 0x8c,
  0x81, 0x7c, 0x93, 0x81, 0x77, 0x7c, 0x91, 0x86, 0x7e, 0x77, 0x89, 0x82,
  0x75, 0x92, 0x8a, 0x8a, 0x83, 0x76, 0x73, 0x7e, 0x73, 0x78, 0x67, 0x7a,
  0x73, 0x84, 0x75, 0x72, 0x6f, 0x83, 0x65, 0x91, 0x5e, 0x67, 0x85, 0x74,
  0x55, 0x72, 0x81, 0x6b, 0x7f, 0x95, 0x6f, 0x76, 0x75, 0x7b, 0x7a, 0x77,
  0x84, 0x68, 0x67, 0x8c, 0x6f, 0x8f, 0x78, 0x79, 0x85, 0x72, 0x85, 0x84,
  0x75, 0x76, 0x76, 0x88, 0x6f, 0x7d, 0x7e, 0x74, 0x5d, 0x7e, 0x71, 0x6b,
  0x7a, 0x88, 0x8d, 0x76, 0x82, 0x7d, 0x8d, 0x87, 0x81, 0x78, 0x8d, 0x88,
  0x76, 0x7f, 0x7c, 0x61, 0x6d, 0x67, 0x87, 0x80, 0x62, 0x75, 0x68, 0x77,
  0x80, 0x7c, 0x7a, 0x86, 0x8a, 0x59, 0x60, 0xa3, 0x89, 0x71, 0x70, 0x58,
  0xc3, 0x84, 0xa7, 0x6d, 0x62, 0xc7, 0x83, 0xac, 0x9d, 0x77, 0xff, 0x9b,
  0x90, 0x5e, 0x26, 0x5f, 0x7d, 0x6a, 0x91, 0x30, 0x7d, 0x93, 0xa5, 0x64,
  0x84, 0x86, 0x9b, 0x76, 0xa1, 0x78, 0x61, 0x85, 0x8c, 0x84, 0x70, 0x72,
  0x98, 0x5f, 0x57, 0x8c, 0x82, 0x7e, 0x67, 0x94, 0x80, 0x5e, 0x83, 0x72,
  0x83, 0x75, 0x72, 0x91, 0x9c, 0x8d, 0x83, 0x71, 0x90, 0x74, 0x72, 0x83,
  0x90, 0x8a, 0x84, 0x67, 0x81, 0x90, 0x80, 0x94, 0x7e, 0x8a, 0x61, 0x79,
  0x6f, 0x82, 0x72, 0x71, 0x7d, 0x8f, 0x82, 0x78, 0x89, 0x87, 0x7c, 0x88,
  0x70, 0x7c, 0x86, 0x69, 0x61, 0x7f, 0x77, 0x80, 0x7d, 0x83, 0x6b, 0x62,
  0x6e, 0x88, 0x6a, 0x77, 0x79, 0x85, 0x67, 0x80, 0x71, 0x65, 0x7e, 0x7e,
  0x82, 0x79, 0x80, 0x73, 0x68, 0x78, 0x8d, 0x73, 0x88, 0x8d, 0x65, 0x8c,
  0x61, 0x78, 0x6f, 0x80, 0x6f, 0x91, 0x7e, 0x71, 0x88, 0x69, 0x84, 0x6a,
  0x64, 0x7d, 0x60, 0x7c, 0x7f, 0x92, 0x6a, 0x7b, 0x72, 0x71, 0x78, 0x8c,
  0x7e, 0x77, 0x70, 0x84, 0x74, 0x68, 0x95, 0x6c, 0x88, 0x5f, 0x5f, 0xaa,
  0x8b, 0x76, 0x5f, 0x61, 0xb6, 0x6e, 0xad, 0x7a, 0x7c, 0xc4, 0x7e, 0x8a,
  0x92, 0x68, 0xf9, 0xb2, 0xa0, 0x8a, 0x22, 0x63, 0x8d, 0x56, 0xa2, 0x4b,
  0x7b, 0x95, 0xab, 0x54, 0x89, 0x97, 0x97, 0x79, 0x7f, 0x61, 0x71, 0x9a,
  0x91, 0x85, 0x70, 0x57, 0x9c, 0x61, 0x71, 0x7b, 0x8e, 0x87, 0x7d, 0x7a,
  0x80, 0x75, 0x82, 0x82, 0x82, 0x88, 0x7d, 0x77, 0x78, 0x60, 0x9c, 0x8d,
  0x84, 0x68, 0x8c, 0x78, 0x68, 0x8d, 0x99, 0x74, 0x86, 0x71, 0x85, 0xa8,
  0x8c, 0x82, 0x65, 0x6d, 0x7b, 0x85, 0x7e, 0x82, 0x79, 0xa9, 0x9e, 0x8a,
  0x74, 0x75, 0x7e, 0x89, 0x69, 0x84, 0x8b, 0x80, 0x80, 0x79, 0x8d, 0x6c,
  0x68, 0x8a, 0x7b, 0x78, 0x67, 0x79, 0x7a, 0x84, 0x8a, 0x8a, 0x60, 0x74,
  0x84, 0x8b, 0x7e, 0x5f, 0x8f, 0x81, 0x71, 0x6d, 0x59, 0x8b, 0x74, 0x81,
  0x75, 0x87, 0x76, 0x82, 0x91, 0x8b, 0x70, 0x80, 0x74, 0x8a, 0x95, 0x7a,
  0x86, 0x7a, 0x79, 0x70, 0x68, 0x51, 0x90, 0x86, 0x65, 0x81, 0x75, 0x71,
  0x7b, 0x7c, 0x65, 0x78, 0x63, 0x8b, 0x7b, 0x79, 0x71, 0x6a, 0x72, 0x77,
  0x9d, 0x62, 0x56, 0x86, 0x78, 0x56, 0x6d, 0x51, 0xbe, 0x78, 0xc1, 0xa4,
  0x74, 0xa3, 0x83, 0xbc, 0xaf, 0x6f, 0xfb, 0xa3, 0x8a, 0x6e, 0x30, 0x41,
  0x8d, 0x81, 0x9a, 0x4f, 0x75, 0x7d, 0x92, 0x6d, 0x71, 0x95, 0xa3, 0x79,
  0x84, 0x63, 0x63, 0x70, 0x72, 0x79, 0x6d, 0x6a, 0x91, 0x6c, 0x73, 0x78,
  0x9d, 0x93, 0x5f, 0x7f, 0x7f, 0x53, 0x6e, 0x6d, 0x7e, 0x7d, 0x7c, 0x80,
  0x93, 0x87, 0x8b, 0x79, 0x90, 0x93, 0x7d, 0x8e, 0x7c, 0x91, 0x84, 0x75,
  0x6b, 0x71, 0x81, 0x91, 0x61, 0x8b, 0x6c, 0x7b, 0x6a, 0x8b, 0x72, 0x70,
  0x6a, 0x8f, 0x82, 0x89, 0x76, 0x9b, 0x6f, 0x84, 0x62, 0x76, 0x63, 0x72,
  0x54, 0x60, 0x83, 0x68, 0x75, 0x7b, 0x80, 0x89, 0x5b, 0x7f, 0x75, 0x6f,
  0x64, 0x8c, 0x77, 0x6c, 0x62, 0x75, 0x69, 0x85, 0x7c, 0xa3, 0x6b, 0x8c,
  0x65, 0x77, 0x7c, 0x83, 0x93, 0x8d, 0x6b, 0x7b, 0x82, 0x7a, 0x78, 0x80,
  0x89, 0x63, 0x76, 0x71, 0x82, 0x63, 0x71, 0x7b, 0x73, 0x64, 0x80, 0x6b,
  0x80, 0x6c, 0x65, 0x67, 0x6c, 0x74, 0x66, 0x68, 0x6d, 0x72, 0x8e, 0x79,
  0x85, 0x82, 0x76, 0x8d, 0xaa, 0x5b, 0x7d, 0xa0, 0x8c, 0x74, 0x6f, 0x52,
  0xc2, 0x77, 0xb1, 0x6c, 0x4f, 0xa6, 0x92, 0xa5, 0x92, 0x7d, 0xf7, 0xa8,
  0x93, 0x7f, 0x30, 0x52, 0x8b, 0x6a, 0x96, 0x51, 0x71, 0xa3, 0x9b, 0x6d,
  0x72, 0x8c, 0x9b, 0x89, 0x94, 0x77, 0x55, 0x83, 0x73, 0x85, 0x6a, 0x62,
  0x8d, 0x62, 0x70, 0x7e, 0x86, 0x78, 0x65, 0x92, 0x7f, 0x61, 0x71, 0x87,
  0x63, 0x73, 0x7a, 0x83, 0x6e, 0x55, 0x7e, 0x99, 0x7c, 0x7b, 0x71, 0x8a,
  0x90, 0x99, 0x83, 0x83, 0x75, 0x7c, 0x72, 0x77, 0x78, 0x7e, 0x68, 0x76,
  0x72, 0x86, 0x7c, 0x78, 0x5b, 0x8d, 0x73, 0x79, 0x7a, 0x88, 0x85, 0x87,
  0x76, 0x64, 0x68, 0x64, 0x69, 0x7e, 0x8b, 0x60, 0x68, 0x8c, 0x80, 0x71,
  0x77, 0x8e, 0x9f, 0x75, 0x88, 0x82, 0x7c, 0x75, 0x7f, 0x76, 0x88, 0x74,
  0x80, 0x76, 0x7e, 0x82, 0x68, 0x7a, 0x89, 0x81, 0x8d, 0x77, 0x6c, 0x80,
  0x75, 0x79, 0x81, 0x6b, 0x86, 0x92, 0x6b, 0x86, 0x8f, 0x7f, 0x78, 0x7b,
  0x61, 0x79, 0x6c, 0x73, 0x7f, 0x74, 0x72, 0x7c, 0x7b, 0x99, 0x82, 0x8d,
  0x89, 0x97, 0x96, 0x74, 0x66, 0x75, 0x74, 0x84, 0x7e, 0x50, 0x7d, 0xac,
  0x65, 0x70, 0x6a, 0x5b, 0xb4, 0x58, 0xa6, 0x5c, 0x83, 0xb3, 0x91, 0x97,
  0xc2, 0x52, 0xd4, 0xba, 0x7d, 0x7a, 0x2d, 0x43, 0x84, 0x66, 0x82, 0x43,
  0x8a, 0xa0, 0xb2, 0x69, 0x72, 0x70, 0x8e, 0x6e, 0x7b, 0x87, 0x65, 0x8d,
  0x6a, 0x88, 0x85, 0x65, 0x83, 0x5c, 0x6d, 0x71, 0x6c, 0x91, 0x7b, 0x8b,
  0x6e, 0x49, 0x67, 0x7e, 0x72, 0x95, 0x9a, 0x9d, 0x7c, 0x6a, 0x73, 0x6b,
  0x6b, 0x71, 0x7e, 0x79, 0x75, 0xaf, 0x7b, 0x77, 0x6d, 0x99, 0x86, 0xaa,
  0x6f, 0x69, 0x6d, 0x82, 0x66, 0x87, 0x8a, 0x6d, 0x73, 0x98, 0x7a, 0x73,
  0x6b, 0x83, 0x76, 0x67, 0x5f, 0x6b, 0x7b, 0x72, 0x72, 0x6b, 0x7f, 0x59,
  0x7b, 0x7e, 0x67, 0x84, 0x74, 0x89, 0x88, 0x65, 0x72, 0x70, 0x69, 0x73,
  0x7a, 0x91, 0x6b, 0x8e, 0x7b, 0x7c, 0x6e, 0x7b, 0x7b, 0x74, 0x94, 0x7d,
  0x6c, 0x8f, 0x86, 0x6b, 0x79, 0x6f, 0x80, 0x73, 0x72, 0x70, 0x86, 0x7d,
  0x8f, 0x8e, 0x8d, 0x6b, 0x72, 0x5a, 0x6a, 0x7c, 0x79, 0x6e, 0x5f, 0x79,
  0x80, 0x7d, 0x6c, 0x83, 0x77, 0x81, 0x80, 0x72, 0x78, 0x74, 0x8d, 0x65,
  0xa3, 0x62, 0x77, 0xaf, 0x9d, 0x94, 0x8b, 0x6b, 0xc2, 0x73, 0xc4, 0x56,
  0x8e, 0xb8, 0x8b, 0xb7, 0x91, 0x88, 0xd1, 0xae, 0x80, 0x8c, 0x44, 0x72,
  0x99, 0x6a, 0x8e, 0x67, 0x9d, 0x90, 0x9e, 0x83, 0x73, 0x6d, 0x92, 0x83,
  0x8e, 0x7d, 0x50, 0x83, 0x83, 0x7b, 0x6d, 0x7f, 0x90, 0x68, 0x80, 0x69,
  0x70, 0xa5, 0x7c, 0x87, 0x87, 0x73, 0x89, 0x94, 0x61, 0x84, 0x68, 0x87,
  0x8a, 0x83, 0x80, 0x63, 0x73, 0x86, 0x88, 0x7d, 0x74, 0x91, 0x81, 0x85,
  0x6e, 0x79, 0x89, 0x8e, 0x6e, 0x72, 0x67, 0x73, 0x6b, 0x90, 0x69, 0x6f,
  0x78, 0x80, 0x6f, 0x7d, 0x6f, 0x8a, 0x6c, 0x8c, 0x66, 0x5f, 0x8a, 0x6c,
  0x86, 0x76, 0x88, 0x6d, 0x8d, 0x87, 0x7a, 0x67, 0x7d, 0x7c, 0x83, 0x6c,
  0x8e, 0x83, 0x76, 0x8a, 0x6f, 0x6f, 0x7c, 0x82, 0x95, 0x9b, 0x7f, 0x90,
  0x63, 0x84, 0x89, 0x7c, 0x79, 0x98, 0x6c, 0x63, 0x6f, 0x76, 0x77, 0x69,
  0x83, 0x77, 0x70, 0x78, 0x70, 0x86, 0x65, 0x7f, 0x6e, 0x5e, 0x64, 0x77,
  0x84, 0x6c, 0x71, 0x8d, 0x7a, 0x71, 0x6c, 0x8a, 0x64, 0x83, 0x8e, 0x85,
  0x75, 0x89, 0x63, 0x80, 0x9a, 0x61, 0x6b, 0xad, 0x8e, 0x88, 0x6f, 0x41,
  0xb8, 0x82, 0xb2, 0x5d, 0x86, 0x9b, 0x7c, 0x90, 0xb2, 0x75, 0xe9, 0xb9,
  0x9a, 0x85, 0x5a, 0x70, 0x91, 0x9e, 0x83, 0x4a, 0x7e, 0xab, 0xa4, 0x78,
  0x6e, 0x7a, 0x90, 0x8b, 0x7a, 0x79, 0x6c, 0x9c, 0x79, 0x83, 0x7e, 0x7b,
  0x72, 0x60, 0x66, 0x84, 0x75, 0x91, 0x74, 0x6a, 0x64, 0x3b, 0x72, 0x81,
  0x72, 0x69, 0x7d, 0x97, 0x8f, 0x76, 0x78, 0x65, 0x79, 0x76, 0x8c, 0x76,
  0x97, 0x90, 0x71, 0x77, 0x6a, 0x8b, 0x5c, 0x9d, 0x74, 0x92, 0x6b, 0x8e,
  0x58, 0x7c, 0x87, 0x61, 0x5f, 0x8c, 0x80, 0x7f, 0x6b, 0x88, 0x71, 0x86,
  0x7f, 0x6f, 0x80, 0x67, 0x77, 0x6f, 0x77, 0x75, 0x6d, 0x73, 0x8a, 0x74,
  0x6e, 0x6b, 0x74, 0x60, 0x7b, 0x81, 0x6d, 0x73, 0x78, 0x7b, 0x93, 0x6c,
  0x76, 0x91, 0x6a, 0x72, 0x5b, 0x7d, 0x76, 0x76, 0x94, 0x73, 0x71, 0x81,
  0x70, 0x83, 0x5d, 0x82, 0x6b, 0x78, 0x8f, 0x7e, 0x86, 0x82, 0x6c, 0x84,
  0x72, 0x68, 0x8e, 0x7b, 0x80, 0x7a, 0x6d, 0x5b, 0x7b, 0x6a, 0x72, 0x84,
  0x85, 0x78, 0x8a, 0x73, 0x6e, 0x82, 0x58, 0x79, 0xb3, 0x45, 0x88, 0xc8,
  0x7f, 0x72, 0x89, 0x5a, 0xbf, 0x68, 0xa6, 0x68, 0x7f, 0xb4, 0x93, 0x92,
  0xa2, 0x58, 0xd1, 0xdb, 0xa3, 0x7f, 0x32, 0x50, 0x80, 0x7d, 0x83, 0x46,
  0x76, 0xa3, 0xb9, 0x7d, 0x6c, 0x7d, 0x88, 0x87, 0x9a, 0x71, 0x67, 0x98,
  0x84, 0x7b, 0x7f, 0x77, 0xa2, 0x69, 0x86, 0x97, 0x7c, 0x8f, 0x68, 0x7d,
  0x8a, 0x59, 0x83, 0x7e, 0x71, 0x81, 0x83, 0x88, 0x70, 0x61, 0x7c, 0x83,
  0x62, 0x81, 0x7d, 0x7d, 0x88, 0x96, 0x90, 0x71, 0x5e, 0x66, 0x5a, 0x8c,
  0x6a, 0x6b, 0x78, 0x77, 0x6f, 0x77, 0x88, 0x6d, 0x75, 0x9c, 0x65, 0x6c,
  0x7a, 0x88, 0x7d, 0x71, 0x6a, 0x86, 0x70, 0x67, 0x65, 0x86, 0x76, 0x7e,
  0x90, 0x85, 0x7d, 0x7b, 0x65, 0x80, 0x8e, 0x6a, 0x8e, 0x81, 0x75, 0x84,
  0x7f, 0x7a, 0x68, 0x7d, 0x8c, 0x8c, 0x6f, 0x89, 0x79, 0x6d, 0x79, 0x6c,
  0x8b, 0x7c, 0x84, 0x83, 0x75, 0x7c, 0x84, 0x6e, 0x69, 0x72, 0x8c, 0x73,
  0x6d, 0x87, 0x85, 0x8e, 0x6a, 0x74, 0xa2, 0x82, 0x78, 0x6e, 0x8c, 0x81,
  0x75, 0x69, 0x71, 0x72, 0x72, 0x70, 0x7f, 0x72, 0x75, 0x8b, 0x85, 0x68,
  0xb1, 0x71, 0x79, 0xb2, 0x6e, 0x7a, 0x90, 0x5a, 0xbf, 0x50, 0xb5, 0x6b,
  0x94, 0xbc, 0x81, 0x94, 0xb1, 0x78, 0xd5, 0xc5, 0xa4, 0x72, 0x6e, 0x58,
  0x95, 0x68, 0x8e, 0x3f, 0x95, 0xb6, 0x93, 0x5e, 0x6e, 0x77, 0x83, 0x7b,
  0x8f, 0x82, 0x64, 0x8f, 0x6a, 0x85, 0x7d, 0x68, 0x9c, 0x55, 0x89, 0x70,
  0x7c, 0x92, 0x80, 0x86, 0x8d, 0x79, 0x61, 0x70, 0x7e, 0x93, 0x74, 0x8a,
  0x93, 0x75, 0x8a, 0x84, 0x5f, 0x8a, 0x80, 0x73, 0x7f, 0x71, 0x75, 0x63,
  0x6f, 0x70, 0x6f, 0x70, 0x7f, 0x72, 0x87, 0x62, 0x60, 0x70, 0x7a, 0x75,
  0x5e, 0x75, 0x7d, 0x79, 0x6c, 0x67, 0x7d, 0x79, 0x7a, 0x93, 0x88, 0x64,
  0x80, 0x61, 0x71, 0x8b, 0x67, 0x7a, 0x79, 0x6f, 0x6b, 0x87, 0x74, 0x61,
  0x9a, 0x96, 0x5f, 0x8d, 0x5d, 0x97, 0x97, 0x88, 0x97, 0x7c, 0x69, 0x70,
  0x79, 0x75, 0x7c, 0x69, 0x8a, 0xa8, 0x72, 0x7e, 0x6a, 0x7d, 0x72, 0x6f,
  0x76, 0x78, 0x98, 0x82, 0x67, 0x90, 0x6d, 0x82, 0x77, 0x66, 0x92, 0x5b,
  0x85, 0x77, 0x6a, 0x83, 0x73, 0x74, 0x60, 0x5f, 0x7b, 0x6c, 0x84, 0x8a,
  0x7e, 0x71, 0x5c, 0x7d, 0xa0, 0x7c, 0x8d, 0x93, 0x96, 0x79, 0x7e, 0x5c,
  0xcb, 0x7d, 0xaa, 0x9a, 0x98, 0xb1, 0x62, 0x78, 0xa4, 0x75, 0xd5, 0xa6,
  0x7e, 0x88, 0x46, 0x5f, 0x6a, 0x79, 0x94, 0x57, 0x84, 0xa2, 0xa1, 0x8c,
  0x58, 0x98, 0xa4, 0x75, 0x80, 0x6f, 0x5b, 0x8c, 0x72, 0x82, 0x72, 0x62,
  0xa1, 0x64, 0x7e, 0x93, 0x76, 0x94, 0x69, 0x5e, 0x76, 0x6e, 0x80, 0x6a,
  0x6b, 0x83, 0x75, 0x82, 0x81, 0x6b, 0x85, 0x77, 0x63, 0x8f, 0x6d, 0x86,
  0x7c, 0x91, 0x8b, 0x7b, 0x85, 0x8a, 0x78, 0x80, 0x63, 0x5c, 0x68, 0x6d,
  0x5f, 0x78, 0x83, 0x69, 0x6a, 0x87, 0x72, 0x8b, 0x74, 0x89, 0x6f, 0x75,
  0x7e, 0x6e, 0x84, 0x70, 0x6c, 0x83, 0x78, 0x94, 0x76, 0x7b, 0x75, 0x78,
  0x64, 0x8f, 0x8c, 0x55, 0x67, 0x7b, 0x6d, 0x85, 0x5e, 0x86, 0x84, 0x6c,
  0x8c, 0x8d, 0x6e, 0x79, 0x57, 0x99, 0x77, 0x5d, 0x74, 0x82, 0x8a, 0x7c,
  0x86, 0x71, 0x86, 0x70, 0x72, 0x76, 0x6c, 0x6c, 0x6c, 0x7a, 0x8e, 0x82,
  0x68, 0x77, 0x70, 0x81, 0x7a, 0x95, 0x91, 0x83, 0x82, 0x7e, 0x81, 0x7d,
  0x7a, 0x82, 0x76, 0x80, 0x72, 0x75, 0x91, 0x6d, 0x97, 0x86, 0x8a, 0xa5,
  0x9b, 0x84, 0xb3, 0x67, 0xcf, 0x7d, 0xc0, 0x7c, 0x99, 0x92, 0x93, 0x8a,
  0x9d, 0x8a, 0xb2, 0xb3, 0x6b, 0x7a, 0x6c, 0x5b, 0x8a, 0x8a, 0x73, 0x68,
  0x92, 0xb9, 0x97, 0x8c, 0x73, 0x80, 0x98, 0x74, 0x80, 0x6f, 0x65, 0x74,
  0x85, 0x89, 0x8b, 0x66, 0x8c, 0x71, 0x6d, 0x7f, 0x70, 0x95, 0x90, 0x5e,
  0x94, 0x70, 0x73, 0x8b, 0x6f, 0x8c, 0x8a, 0x73, 0x7f, 0x77, 0x89, 0x8d,
  0x7d, 0x86, 0x68, 0x85, 0x5f, 0x83, 0x75, 0x7a, 0x75, 0x79, 0x7a, 0x96,
  0x77, 0x76, 0x74, 0x6c, 0x6d, 0x72, 0x6a, 0x82, 0x6f, 0x61, 0x8a, 0x74,
  0x98, 0x7e, 0x71, 0x7a, 0x7f, 0x79, 0x6e, 0x86, 0x6c, 0x8e, 0x84, 0x7c,
  0x77, 0x7a, 0x60, 0x7e, 0x71, 0x7a, 0x8c, 0x61, 0x6d, 0x8a, 0x62, 0x7f,
  0x76, 0x90, 0x88, 0x83, 0x94, 0x8c, 0x80, 0x7f, 0x71, 0x6d, 0x7a, 0x7c,
  0x7e, 0x89, 0x68, 0x7f, 0x7a, 0x7e, 0x8b, 0x78, 0x60, 0x78, 0x98, 0x78,
  0x7a, 0x75, 0x7d, 0x7e, 0x7e, 0x65, 0x82, 0x7a, 0x66, 0x90, 0x6b, 0x6c,
  0x89, 0x82, 0x7f, 0x7c, 0x7a, 0x71, 0x96, 0x83, 0x92, 0x6e, 0x73, 0x88,
  0x9a, 0x6f, 0x93, 0xaa, 0xad, 0x8b, 0x8f, 0x76, 0xbd, 0x6e, 0x90, 0x87,
  0x8a, 0x84, 0x6e, 0x79, 0xac, 0x91, 0xce, 0xcb, 0x78, 0x66, 0x5b, 0x49,
  0x8c, 0x8e, 0x9a, 0x6c, 0x80, 0xa2, 0x98, 0x8e, 0x82, 0x75, 0x73, 0x79,
  0x82, 0x6e, 0x4e, 0x82, 0x43, 0x7f, 0x8c, 0x65, 0x87, 0x69, 0x72, 0x84,
  0x4d, 0x81, 0x70, 0x66, 0x85, 0x71, 0x67, 0x73, 0x77, 0x7e, 0x7c, 0x83,
  0x98, 0x6b, 0x87, 0x6c, 0x84, 0x7c, 0x63, 0x75, 0x63, 0x78, 0x7d, 0x65,
  0x74, 0x69, 0x79, 0x85, 0x5e, 0x75, 0x82, 0x70, 0x6d, 0x6c, 0x6f, 0x8e,
  0x65, 0x92, 0x6f, 0x78, 0x8a, 0x83, 0x7c, 0x75, 0x6e, 0x72, 0x7c, 0x71,
  0x7b, 0x6f, 0x7a, 0x82, 0x74, 0x81, 0x6f, 0x78, 0x76, 0x78, 0x81, 0x6e,
  0x8a, 0x8c, 0x6c, 0x72, 0x74, 0x7f, 0x88, 0x7f, 0x7f, 0x93, 0x7c, 0x8d,
  0x6f, 0x86, 0x64, 0x74, 0x92, 0x8a, 0x82, 0x8c, 0x73, 0x81, 0x7c, 0x62,
  0x77, 0x80, 0x9c, 0x85, 0x82, 0x7a, 0x80, 0x80, 0x6a, 0x64, 0x71, 0x72,
  0x6f, 0x7e, 0x7c, 0x6e, 0x84, 0x73, 0x73, 0x98, 0x7b, 0x83, 0x77, 0x8d,
  0x8b, 0x6a, 0x80, 0x8d, 0x7e, 0x5f, 0x87, 0xa7, 0x82, 0x97, 0xaf, 0x62,
  0xab, 0x5e, 0x86, 0x5b, 0x70, 0xae, 0x81, 0x81, 0xad, 0x69, 0xad, 0xab,
  0x73, 0x72, 0x4e, 0x6d, 0x7b, 0x6e, 0x87, 0x44, 0x70, 0x8f, 0xa0, 0x74,
  0x90, 0x7a, 0x92, 0x80, 0x90, 0x64, 0x7a, 0x7e, 0x5b, 0x79, 0x6f, 0x63,
  0x88, 0x80, 0x78, 0x8a, 0x7d, 0x8e, 0x7a, 0x67, 0x79, 0x75, 0x80, 0x7e,
  0x76, 0x77, 0x7c, 0x89, 0x73, 0x82, 0x75, 0x6f, 0x8f, 0x7a, 0x7f, 0x78,
  0x65, 0x83, 0x8d, 0x6d, 0x77, 0x8b, 0x73, 0x87, 0x74, 0x91, 0x84, 0x76,
  0x62, 0x69, 0x80, 0x87, 0x66, 0x7e, 0x8f, 0x7a, 0x7c, 0x63, 0x73, 0x83,
  0x68, 0x77, 0x73, 0x84, 0x73, 0x93, 0x71, 0x99, 0x76, 0x76, 0x79, 0x85,
  0x6f, 0x82, 0x6f, 0x6c, 0x7a, 0x8b, 0x7f, 0x90, 0x66, 0x8c, 0x8e, 0x81,
  0x91, 0x88, 0x8d, 0x7b, 0x7f, 0x6e, 0x8e, 0x73, 0x74, 0x6e, 0x8a, 0x89,
  0x70, 0x7a, 0x83, 0x6c, 0x75, 0x86, 0x85, 0x89, 0x82, 0x86, 0x63, 0x70,
  0x7c, 0x57, 0x8b, 0x67, 0x77, 0x8b, 0x7c, 0x75, 0x78, 0x73, 0x77, 0x8d,
  0x7d, 0x73, 0x62, 0x7f, 0x87, 0x7d, 0x89, 0x85, 0x73, 0x58, 0x72, 0x9d,
  0x4a, 0x67, 0xb6, 0x8a, 0xc3, 0x70, 0x7e, 0x83, 0x89, 0xb3, 0x78, 0x87,
  0x81, 0x57, 0xb5, 0xbf, 0x88, 0x75, 0x91, 0x78, 0x8a, 0x66, 0x7f, 0x65,
  0x7f, 0xa1, 0x98, 0x75, 0x68, 0x6c, 0x80, 0x89, 0x8b, 0x8c, 0x62, 0x7a,
  0x55, 0x74, 0x7b, 0x69, 0x8e, 0x9f, 0x7b, 0x84, 0x7d, 0x8c, 0x77, 0x6b,
  0x8f, 0x7b, 0x88, 0x98, 0x9f, 0x93, 0x6f, 0x6f, 0x7b, 0x7e, 0x78, 0x7a,
  0x5f, 0x88, 0x66, 0x6d, 0x73, 0x73, 0x7b, 0x96, 0x90, 0x98, 0x6b, 0x73,
  0x80, 0x81, 0x72, 0x71, 0x77, 0x6c, 0x68, 0x79, 0x6f, 0x91, 0x65, 0x60,
  0x8d, 0x7e, 0x70, 0x73, 0x61, 0x64, 0x7f, 0x8d, 0x68, 0x80, 0x87, 0x86,
  0x86, 0x7c, 0x66, 0x82, 0x60, 0x7d, 0x69, 0x71, 0x8a, 0x77, 0x69, 0x67,
  0x6f, 0x84, 0x7e, 0x6e, 0x7a, 0x90, 0x7f, 0x7c, 0x7c, 0x7f, 0x8e, 0x80,
  0x67, 0x78, 0x79, 0x84, 0x8d, 0x7e, 0x77, 0x71, 0x6c, 0x84, 0x86, 0x96,
  0x81, 0x75, 0x6e, 0x83, 0x79, 0x63, 0x8f, 0x88, 0x78, 0x80, 0x8f, 0x7d,
  0x73, 0x7b, 0x7c, 0x85, 0x94, 0x9c, 0x7e, 0x8a, 0x78, 0x76, 0x7e, 0x80,
  0xa0, 0x89, 0x75, 0x73, 0x72, 0x7c, 0x85, 0x82, 0xb4, 0x5c, 0x73, 0x84,
  0x69, 0x97, 0x75, 0x86, 0x6c, 0x76, 0xa2, 0xc4, 0x6e, 0x64, 0x6b, 0x9a,
  0x95, 0x78, 0xad, 0x7d, 0x74, 0x74, 0x81, 0x79, 0x7b, 0x70, 0x92, 0x86,
  0x79, 0x95, 0x81, 0x86, 0x6e, 0x78, 0x7f, 0x67, 0x88, 0x86, 0x6f, 0x92,
  0x63, 0x77, 0x69, 0x64, 0x75, 0x64, 0x81, 0x78, 0x78, 0x84, 0x92, 0x79,
  0x86, 0x74, 0x81, 0x6d, 0x78, 0x78, 0x7e, 0x67, 0x7f, 0x66, 0x78, 0x8d,
  0x76, 0x6c, 0x7b, 0x7e, 0x75, 0x7e, 0x7d, 0x87, 0x8a, 0x7d, 0x81, 0x84,
  0x77, 0x7f, 0x8b, 0x7a, 0x7c, 0x94, 0x71, 0x7d, 0x78, 0x6e, 0x6f, 0x66,
  0x7c, 0x85, 0x82, 0x94, 0x96, 0x78, 0x7b, 0x7b, 0x6b, 0x6f, 0x83, 0x5b,
  0x7c, 0x96, 0x80, 0x8c, 0x74, 0x89, 0x74, 0x71, 0x82, 0x7d, 0x88, 0x95,
  0x89, 0x6d, 0x8c, 0x6c, 0x94, 0x88, 0x98, 0x6d, 0x70, 0x82, 0x85, 0x74,
  0x95, 0x6e, 0x85, 0x79, 0x98, 0x80, 0x97, 0x88, 0x76, 0x6c, 0x71, 0x90,
  0x82, 0x93, 0x77, 0x6a, 0x8b, 0x72, 0x7c, 0x8b, 0x7e, 0x86, 0x74, 0x68,
  0x7f, 0x83, 0x8f, 0x72, 0xb8, 0xfc, 0xff, 0xff, 0xbc, 0xfc, 0xff, 0xff,
  0xc0, 0xfc, 0xff, 0xff, 0xc4, 0xfc, 0xff, 0xff, 0xb4, 0xfd, 0xff, 0xff,
  0x20, 0x00, 0x00, 0x00, 0x14, 0x00, 0x00, 0x00, 0x08, 0x00, 0x00, 0x00,
  0x80, 0x02, 0x00, 0x00, 0x01, 0x00, 0x00, 0x00, 0x03, 0x00, 0x00, 0x00,
  0x01, 0x00, 0x00, 0x00, 0x01, 0x00, 0x00, 0x00, 0x05, 0x00, 0x00, 0x00,
